{
  "version": "1.0",
  "truncation": {
    "direction": "Right",
    "max_length": 1024,
    "strategy": "LongestFirst",
    "stride": 0
  },
  "padding": null,
  "added_tokens": [
    {
      "id": 0,
      "content": "[PAD]",
      "single_word": false,
      "lstrip": false,
      "rstrip": false,
      "normalized": false,
      "special": true
    },
    {
      "id": 100,
      "content": "[UNK]",
      "single_word": false,
      "lstrip": false,
      "rstrip": false,
      "normalized": false,
      "special": true
    },
    {
      "id": 101,
      "content": "[CLS]",
      "single_word": false,
      "lstrip": false,
      "rstrip": false,
      "normalized": false,
      "special": true
    },
    {
      "id": 102,
      "content": "[SEP]",
      "single_word": false,
      "lstrip": false,
      "rstrip": false,
      "normalized": false,
      "special": true
    },
    {
      "id": 103,
      "content": "[MASK]",
      "single_word": false,
      "lstrip": false,
      "rstrip": false,
      "normalized": false,
      "special": true
    }
  ],
  "normalizer": {
    "type": "BertNormalizer",
    "clean_text": true,
    "handle_chinese_chars": true,
    "strip_accents": null,
    "lowercase": false
  },
  "pre_tokenizer": {
    "type": "BertPreTokenizer"
  },
  "post_processor": {
    "type": "TemplateProcessing",
    "single": [
      {
        "SpecialToken": {
          "id": "[CLS]",
          "type_id": 0
        }
      },
      {
        "Sequence": {
          "id": "A",
          "type_id": 0
        }
      },
      {
        "SpecialToken": {
          "id": "[SEP]",
          "type_id": 0
        }
      }
    ],
    "pair": [
      {
        "SpecialToken": {
          "id": "[CLS]",
          "type_id": 0
        }
      },
      {
        "Sequence": {
          "id": "A",
          "type_id": 0
        }
      },
      {
        "SpecialToken": {
          "id": "[SEP]",
          "type_id": 0
        }
      },
      {
        "Sequence": {
          "id": "B",
          "type_id": 1
        }
      },
      {
        "SpecialToken": {
          "id": "[SEP]",
          "type_id": 1
        }
      }
    ],
    "special_tokens": {
      "[CLS]": {
        "id": "[CLS]",
        "ids": [
          101
        ],
        "tokens": [
          "[CLS]"
        ]
      },
      "[SEP]": {
        "id": "[SEP]",
        "ids": [
          102
        ],
        "tokens": [
          "[SEP]"
        ]
      }
    }
  },
  "decoder": {
    "type": "WordPiece",
    "prefix": "##",
    "cleanup": true
  },
  "model": {
    "type": "WordPiece",
    "unk_token": "[UNK]",
    "continuing_subword_prefix": "##",
    "max_input_chars_per_word": 100,
    "vocab": {
      "[PAD]": 0,
      "[unused1]": 1,
      "[unused2]": 2,
      "[unused3]": 3,
      "[unused4]": 4,
      "[unused5]": 5,
      "[unused6]": 6,
      "[unused7]": 7,
      "[unused8]": 8,
      "[unused9]": 9,
      "[unused10]": 10,
      "[unused11]": 11,
      "[unused12]": 12,
      "[unused13]": 13,
      "[unused14]": 14,
      "[unused15]": 15,
      "[unused16]": 16,
      "[unused17]": 17,
      "[unused18]": 18,
      "[unused19]": 19,
      "[unused20]": 20,
      "[unused21]": 21,
      "[unused22]": 22,
      "[unused23]": 23,
      "[unused24]": 24,
      "[unused25]": 25,
      "[unused26]": 26,
      "[unused27]": 27,
      "[unused28]": 28,
      "[unused29]": 29,
      "[unused30]": 30,
      "[unused31]": 31,
      "[unused32]": 32,
      "[unused33]": 33,
      "[unused34]": 34,
      "[unused35]": 35,
      "[unused36]": 36,
      "[unused37]": 37,
      "[unused38]": 38,
      "[unused39]": 39,
      "[unused40]": 40,
      "[unused41]": 41,
      "[unused42]": 42,
      "[unused43]": 43,
      "[unused44]": 44,
      "[unused45]": 45,
      "[unused46]": 46,
      "[unused47]": 47,
      "[unused48]": 48,
      "[unused49]": 49,
      "[unused50]": 50,
      "[unused51]": 51,
      "[unused52]": 52,
      "[unused53]": 53,
      "[unused54]": 54,
      "[unused55]": 55,
      "[unused56]": 56,
      "[unused57]": 57,
      "[unused58]": 58,
      "[unused59]": 59,
      "[unused60]": 60,
      "[unused61]": 61,
      "[unused62]": 62,
      "[unused63]": 63,
      "[unused64]": 64,
      "[unused65]": 65,
      "[unused66]": 66,
      "[unused67]": 67,
      "[unused68]": 68,
      "[unused69]": 69,
      "[unused70]": 70,
      "[unused71]": 71,
      "[unused72]": 72,
      "[unused73]": 73,
      "[unused74]": 74,
      "[unused75]": 75,
      "[unused76]": 76,
      "[unused77]": 77,
      "[unused78]": 78,
      "[unused79]": 79,
      "[unused80]": 80,
      "[unused81]": 81,
      "[unused82]": 82,
      "[unused83]": 83,
      "[unused84]": 84,
      "[unused85]": 85,
      "[unused86]": 86,
      "[unused87]": 87,
      "[unused88]": 88,
      "[unused89]": 89,
      "[unused90]": 90,
      "[unused91]": 91,
      "[unused92]": 92,
      "[unused93]": 93,
      "[unused94]": 94,
      "[unused95]": 95,
      "[unused96]": 96,
      "[unused97]": 97,
      "[unused98]": 98,
      "[unused99]": 99,
      "[UNK]": 100,
      "[CLS]": 101,
      "[SEP]": 102,
      "[MASK]": 103,
      "<S>": 104,
      "<T>": 105,
      "!": 106,
      "\"": 107,
      "#": 108,
      "$": 109,
      "%": 110,
      "&": 111,
      "'": 112,
      "(": 113,
      ")": 114,
      "*": 115,
      "+": 116,
      ",": 117,
      "-": 118,
      ".": 119,
      "/": 120,
      "d": 121,
      "e": 122,
      "a": 123,
      "##ra": 124,
      "de": 125,
      "p": 126,
      "c": 127,
      "##os": 128,
      "##nt": 129,
      "##re": 130,
      ":": 131,
      ";": 132,
      "<": 133,
      "=": 134,
      ">": 135,
      "?": 136,
      "@": 137,
      "##as": 138,
      "s": 139,
      "##er": 140,
      "##or": 141,
      "##ad": 142,
      "##es": 143,
      "co": 144,
      "##is": 145,
      "o": 146,
      "##in": 147,
      "##ma": 148,
      "n": 149,
      "##ão": 150,
      "##ia": 151,
      "##qu": 152,
      "f": 153,
      "##ta": 154,
      "##me": 155,
      "##ic": 156,
      "##ro": 157,
      "##nd": 158,
      "##ar": 159,
      "t": 160,
      "##id": 161,
      "##al": 162,
      "qu": 163,
      "[": 164,
      "\\": 165,
      "]": 166,
      "^": 167,
      "_": 168,
      "u": 169,
      "com": 170,
      "do": 171,
      "##ri": 172,
      "em": 173,
      "m": 174,
      "##nte": 175,
      "se": 176,
      "A": 177,
      "##el": 178,
      "que": 179,
      "da": 180,
      "##on": 181,
      "##ção": 182,
      "##to": 183,
      "re": 184,
      "##te": 185,
      "##ara": 186,
      "C": 187,
      "es": 188,
      "v": 189,
      "##an": 190,
      "##le": 191,
      "E": 192,
      "##ti": 193,
      "##en": 194,
      "{": 195,
      "|": 196,
      "}": 197,
      "~": 198,
      "¡": 199,
      "S": 200,
      "##ado": 201,
      "no": 202,
      "##ou": 203,
      "§": 204,
      "1": 205,
      "##\"": 206,
      "##res": 207,
      "«": 208,
      "##ul": 209,
      "##em": 210,
      "##ol": 211,
      "P": 212,
      "M": 213,
      "##ndo": 214,
      "##il": 215,
      "¶": 216,
      "·": 217,
      "##ci": 218,
      "l": 219,
      "»": 220,
      "para": 221,
      "um": 222,
      "ma": 223,
      "¿": 224,
      "##gu": 225,
      "##tu": 226,
      "fo": 227,
      "##am": 228,
      "na": 229,
      "uma": 230,
      "O": 231,
      "##ica": 232,
      "su": 233,
      "##nto": 234,
      "b": 235,
      "##se": 236,
      "g": 237,
      "in": 238,
      "##nc": 239,
      "por": 240,
      "B": 241,
      "##(": 242,
      "##do": 243,
      "##ei": 244,
      "2": 245,
      "##mente": 246,
      "##io": 247,
      "N": 248,
      "##us": 249,
      "D": 250,
      "##ada": 251,
      "##ha": 252,
      "é": 253,
      "i": 254,
      "##ns": 255,
      "##va": 256,
      "R": 257,
      "pro": 258,
      "os": 259,
      "as": 260,
      "##ade": 261,
      "foi": 262,
      "F": 263,
      "##po": 264,
      "##ent": 265,
      "##la": 266,
      "T": 267,
      "##ho": 268,
      "##pe": 269,
      "##ões": 270,
      "como": 271,
      "##de": 272,
      "des": 273,
      "j": 274,
      "19": 275,
      "L": 276,
      "##ras": 277,
      "G": 278,
      "pel": 279,
      "##iv": 280,
      "##iz": 281,
      "##mb": 282,
      "##mo": 283,
      "##it": 284,
      "##da": 285,
      "##ido": 286,
      "##ig": 287,
      "##ram": 288,
      "##ce": 289,
      "I": 290,
      "ou": 291,
      "##idade": 292,
      "##so": 293,
      "ex": 294,
      "##ist": 295,
      "##he": 296,
      "20": 297,
      "dos": 298,
      "J": 299,
      "##no": 300,
      "##ve": 301,
      "po": 302,
      "##co": 303,
      "##ca": 304,
      "ap": 305,
      "##tr": 306,
      "##ir": 307,
      "##ados": 308,
      "##un": 309,
      "##mento": 310,
      "me": 311,
      "##ém": 312,
      "al": 313,
      "##im": 314,
      "##ções": 315,
      "ta": 316,
      "con": 317,
      "ent": 318,
      "##ico": 319,
      "ao": 320,
      "##pa": 321,
      "##ria": 322,
      "##nde": 323,
      "##na": 324,
      "mais": 325,
      "##lo": 326,
      "sua": 327,
      "##ida": 328,
      "ca": 329,
      "H": 330,
      "so": 331,
      "par": 332,
      "ser": 333,
      "est": 334,
      "Em": 335,
      "cont": 336,
      "per": 337,
      "tra": 338,
      "##go": 339,
      "##ncia": 340,
      "##ação": 341,
      "##rio": 342,
      "##ita": 343,
      "for": 344,
      "Es": 345,
      "não": 346,
      "seu": 347,
      "##ando": 348,
      "h": 349,
      "##mp": 350,
      "##cia": 351,
      "##at": 352,
      "à": 353,
      "V": 354,
      "##\",": 355,
      "##ça": 356,
      "##if": 357,
      "##ntes": 358,
      "U": 359,
      "an": 360,
      "at": 361,
      "mu": 362,
      "pr": 363,
      "##ira": 364,
      "##ur": 365,
      "das": 366,
      "##ter": 367,
      "ele": 368,
      "pri": 369,
      "ter": 370,
      "##era": 371,
      "pa": 372,
      "##ito": 373,
      "to": 374,
      "##sa": 375,
      "tem": 376,
      "##ment": 377,
      "##vo": 378,
      "##du": 379,
      "cons": 380,
      "##ru": 381,
      "##tos": 382,
      "##ec": 383,
      "##ista": 384,
      "Co": 385,
      "##cion": 386,
      "##ina": 387,
      "ar": 388,
      "##um": 389,
      "mo": 390,
      "##ver": 391,
      "##ura": 392,
      "##tic": 393,
      "prime": 394,
      "fa": 395,
      "##),": 396,
      "##iro": 397,
      "res": 398,
      "##ência": 399,
      "201": 400,
      "##adas": 401,
      "##mbém": 402,
      "##ente": 403,
      "##nda": 404,
      "segu": 405,
      "##tura": 406,
      "também": 407,
      "comp": 408,
      "No": 409,
      "##nter": 410,
      "##lu": 411,
      "pela": 412,
      "##ez": 413,
      "##ior": 414,
      "##vel": 415,
      "gra": 416,
      "ac": 417,
      "esta": 418,
      "##vi": 419,
      "entre": 420,
      "##ga": 421,
      "200": 422,
      "pelo": 423,
      "##ers": 424,
      "sob": 425,
      "##ição": 426,
      "dis": 427,
      "##tor": 428,
      "pos": 429,
      "##ed": 430,
      "##ís": 431,
      "en": 432,
      "##ix": 433,
      "di": 434,
      "##\".": 435,
      "##tra": 436,
      "te": 437,
      "or": 438,
      "##og": 439,
      "esc": 440,
      "##ais": 441,
      "##dos": 442,
      "á": 443,
      "##ros": 444,
      "##ass": 445,
      "##ing": 446,
      "le": 447,
      "W": 448,
      "mas": 449,
      "fil": 450,
      "##oc": 451,
      "##ulo": 452,
      "são": 453,
      "mes": 454,
      "##que": 455,
      "##iu": 456,
      "##ib": 457,
      "##eiro": 458,
      "##pos": 459,
      "##ial": 460,
      "K": 461,
      "##esso": 462,
      "ob": 463,
      "##man": 464,
      "##ês": 465,
      "pre": 466,
      "##ári": 467,
      "##ag": 468,
      "##ós": 469,
      "##tas": 470,
      "##bl": 471,
      "ab": 472,
      "##tiv": 473,
      "##idos": 474,
      "ba": 475,
      "Al": 476,
      "##tal": 477,
      "##tica": 478,
      "##ens": 479,
      "##).": 480,
      "anos": 481,
      "Re": 482,
      "##be": 483,
      "##ion": 484,
      "##min": 485,
      "##mas": 486,
      "##tado": 487,
      "##ário": 488,
      "##ess": 489,
      "##aram": 490,
      "##pres": 491,
      "##bo": 492,
      "##ch": 493,
      "reg": 494,
      "era": 495,
      "Mar": 496,
      "##tru": 497,
      "sobre": 498,
      "##ere": 499,
      "##ador": 500,
      "##ios": 501,
      "ass": 502,
      "Na": 503,
      "cas": 504,
      "car": 505,
      "foram": 506,
      "##les": 507,
      "##inha": 508,
      "##inal": 509,
      "As": 510,
      "3": 511,
      "##for": 512,
      "##ades": 513,
      "##ne": 514,
      "##anto": 515,
      "tor": 516,
      "##ino": 517,
      "##vol": 518,
      "##orte": 519,
      "Pa": 520,
      "##ço": 521,
      "##gra": 522,
      "##cio": 523,
      "##ja": 524,
      "imp": 525,
      "##per": 526,
      "au": 527,
      "mar": 528,
      "nas": 529,
      "Se": 530,
      "##éc": 531,
      "seus": 532,
      "Os": 533,
      "##tros": 534,
      "##aliz": 535,
      "Un": 536,
      "##je": 537,
      "nos": 538,
      "##nta": 539,
      "De": 540,
      "##bal": 541,
      "18": 542,
      "pres": 543,
      "##iste": 544,
      "##der": 545,
      "##ham": 546,
      "forma": 547,
      "até": 548,
      "cor": 549,
      "##cial": 550,
      "##bro": 551,
      "##tro": 552,
      "##ons": 553,
      "##00": 554,
      "##tes": 555,
      "##eira": 556,
      "##indo": 557,
      "inter": 558,
      "##ip": 559,
      "##icos": 560,
      "##cional": 561,
      "##ias": 562,
      "inc": 563,
      "##anç": 564,
      "##ula": 565,
      "Por": 566,
      "##tiva": 567,
      "enc": 568,
      "##titu": 569,
      "rec": 570,
      "##-": 571,
      "fu": 572,
      "##pois": 573,
      "##pera": 574,
      "##urante": 575,
      "vez": 576,
      "ro": 577,
      "##tar": 578,
      "##mentos": 579,
      "##mer": 580,
      "##ba": 581,
      "onde": 582,
      "##ele": 583,
      "##lia": 584,
      "##icas": 585,
      "of": 586,
      "##ran": 587,
      "ho": 588,
      "##idades": 589,
      "##ér": 590,
      "##das": 591,
      "mil": 592,
      "##ite": 593,
      "##ase": 594,
      "##ivers": 595,
      "tempo": 596,
      "##ião": 597,
      "contra": 598,
      "lu": 599,
      "produ": 600,
      "ins": 601,
      "ad": 602,
      "##ral": 603,
      "##ber": 604,
      "##ús": 605,
      "conc": 606,
      "ha": 607,
      "##erra": 608,
      "prin": 609,
      "cam": 610,
      "##ários": 611,
      "Bras": 612,
      "##iss": 613,
      "algu": 614,
      "qual": 615,
      "##enas": 616,
      "Sa": 617,
      "##ont": 618,
      "##via": 619,
      "Ma": 620,
      "199": 621,
      "ano": 622,
      "du": 623,
      "##inda": 624,
      "quando": 625,
      "##ên": 626,
      "inte": 627,
      "Ca": 628,
      "sa": 629,
      "##til": 630,
      "ú": 631,
      "##anh": 632,
      "##ória": 633,
      "##ile": 634,
      "##dio": 635,
      "maior": 636,
      "oc": 637,
      "##hec": 638,
      "##entes": 639,
      "##ge": 640,
      "dire": 641,
      "##ín": 642,
      "##almente": 643,
      "dia": 644,
      "trabal": 645,
      "ra": 646,
      "##rá": 647,
      "##ôn": 648,
      "##idas": 649,
      "##0,": 650,
      "cidade": 651,
      "primeiro": 652,
      "mesmo": 653,
      "##tou": 654,
      "nome": 655,
      "##és": 656,
      "##por": 657,
      "##orre": 658,
      "faz": 659,
      "sendo": 660,
      "pol": 661,
      "come": 662,
      "՚": 663,
      "՛": 664,
      "՜": 665,
      "՝": 666,
      "՞": 667,
      "poss": 668,
      "trans": 669,
      "parte": 670,
      "##rada": 671,
      "##ranc": 672,
      "Ro": 673,
      "cl": 674,
      "suas": 675,
      "##istas": 676,
      "##este": 677,
      "4": 678,
      "##dia": 679,
      "##aria": 680,
      "primeira": 681,
      "dois": 682,
      "##hos": 683,
      "##rem": 684,
      "##ceu": 685,
      "princi": 686,
      "##est": 687,
      "##éri": 688,
      "rela": 689,
      "##ano": 690,
      "Su": 691,
      "##vam": 692,
      "dec": 693,
      "##bu": 694,
      "sub": 695,
      "Ch": 696,
      "##tivo": 697,
      "está": 698,
      "##ima": 699,
      "depois": 700,
      "##nos": 701,
      "##gar": 702,
      "##om": 703,
      "##ân": 704,
      "##gem": 705,
      "pode": 706,
      "։": 707,
      "֊": 708,
      "##over": 709,
      "São": 710,
      "##ular": 711,
      "aos": 712,
      "##tico": 713,
      "##ismo": 714,
      "##ola": 715,
      "##ona": 716,
      "ju": 717,
      "hist": 718,
      "־": 719,
      "##tados": 720,
      "##itos": 721,
      "׃": 722,
      "pass": 723,
      "Jo": 724,
      "##fer": 725,
      "durante": 726,
      "us": 727,
      "##ard": 728,
      "Ar": 729,
      "esp": 730,
      "##óp": 731,
      "5": 732,
      "ind": 733,
      "espe": 734,
      "##et": 735,
      "outros": 736,
      "##ração": 737,
      "cer": 738,
      "grande": 739,
      "ela": 740,
      "##ju": 741,
      "##eral": 742,
      "##son": 743,
      "ainda": 744,
      "torn": 745,
      "rece": 746,
      "##ela": 747,
      "##rou": 748,
      "##ás": 749,
      "׳": 750,
      "״": 751,
      "،": 752,
      "؍": 753,
      "##tó": 754,
      "؛": 755,
      "؟": 756,
      "##Qu": 757,
      "##isão": 758,
      "##ças": 759,
      "dif": 760,
      "Com": 761,
      "ag": 762,
      "##ogo": 763,
      "desen": 764,
      "che": 765,
      "pe": 766,
      "X": 767,
      "gru": 768,
      "##dem": 769,
      "já": 770,
      "Brasil": 771,
      "tr": 772,
      "Gu": 773,
      "final": 774,
      "##ór": 775,
      "##úbl": 776,
      "equ": 777,
      "encont": 778,
      "##tir": 779,
      "##fe": 780,
      "vol": 781,
      "Ap": 782,
      "Fo": 783,
      "##cias": 784,
      "muito": 785,
      "cri": 786,
      "Ele": 787,
      "##eito": 788,
      "##ine": 789,
      "após": 790,
      "##uro": 791,
      "ver": 792,
      "##mos": 793,
      "##ie": 794,
      "##ana": 795,
      "##enta": 796,
      "##idera": 797,
      "partic": 798,
      "##ck": 799,
      "##embro": 800,
      "##adores": 801,
      "pesso": 802,
      "apres": 803,
      "198": 804,
      "Car": 805,
      "país": 806,
      "Qu": 807,
      "gover": 808,
      "##uma": 809,
      "##val": 810,
      "٪": 811,
      "٫": 812,
      "٬": 813,
      "٭": 814,
      "pop": 815,
      "lanç": 816,
      "loc": 817,
      "conhec": 818,
      "jog": 819,
      "apenas": 820,
      "##elo": 821,
      "can": 822,
      "##are": 823,
      "##ord": 824,
      "##rado": 825,
      "##ício": 826,
      "##pre": 827,
      "##esa": 828,
      "atu": 829,
      "##cu": 830,
      "##íp": 831,
      "##ições": 832,
      "##ng": 833,
      "sem": 834,
      "##ível": 835,
      "##plo": 836,
      "۔": 837,
      "##inu": 838,
      "##tras": 839,
      "##ala": 840,
      "fam": 841,
      "##has": 842,
      "Ba": 843,
      "##rav": 844,
      "mús": 845,
      "##gre": 846,
      "is": 847,
      "então": 848,
      "cham": 849,
      "##ntos": 850,
      "inf": 851,
      "##za": 852,
      "cap": 853,
      "cria": 854,
      "##icial": 855,
      "ant": 856,
      "##vido": 857,
      "realiz": 858,
      "##atro": 859,
      "este": 860,
      "##gan": 861,
      "##pu": 862,
      "##pl": 863,
      "três": 864,
      "##con": 865,
      "gu": 866,
      "ál": 867,
      "inclu": 868,
      "Mu": 869,
      "af": 870,
      "##segu": 871,
      "ne": 872,
      "ve": 873,
      "##icação": 874,
      "orig": 875,
      "##êm": 876,
      "un": 877,
      "##ide": 878,
      "pu": 879,
      "##tá": 880,
      "##lti": 881,
      "cr": 882,
      "Par": 883,
      "##unic": 884,
      "##cesso": 885,
      "polí": 886,
      "##érie": 887,
      "6": 888,
      "197": 889,
      "##orta": 890,
      "nov": 891,
      "##ril": 892,
      "constru": 893,
      "##aneiro": 894,
      "Mo": 895,
      "Lu": 896,
      "##ton": 897,
      "si": 898,
      "##ticas": 899,
      "##rar": 900,
      "div": 901,
      "ed": 902,
      "##gua": 903,
      "##forma": 904,
      "princip": 905,
      "##rig": 906,
      "##ific": 907,
      "sido": 908,
      "##veis": 909,
      "##ização": 910,
      "Le": 911,
      "##ena": 912,
      "estu": 913,
      "##hor": 914,
      "conf": 915,
      "##2,": 916,
      "##bum": 917,
      "##cul": 918,
      "desenvol": 919,
      "।": 920,
      "॥": 921,
      "##idente": 922,
      "##iam": 923,
      "duas": 924,
      "ir": 925,
      "poder": 926,
      "##8,": 927,
      "form": 928,
      "##7,": 929,
      "começ": 930,
      "##itar": 931,
      "॰": 932,
      "##ves": 933,
      "##car": 934,
      "##5,": 935,
      "nú": 936,
      "##6,": 937,
      "##ant": 938,
      "grupo": 939,
      "nova": 940,
      "##quanto": 941,
      "##cos": 942,
      "##cer": 943,
      "todos": 944,
      "##iga": 945,
      "##1,": 946,
      "##dor": 947,
      "##4,": 948,
      "mel": 949,
      "##dic": 950,
      "##cimento": 951,
      "##rea": 952,
      "##vimento": 953,
      "pelos": 954,
      "liv": 955,
      "##mar": 956,
      "Y": 957,
      "fre": 958,
      "Para": 959,
      "util": 960,
      "álbum": 961,
      "vo": 962,
      "##árias": 963,
      "ti": 964,
      "##th": 965,
      "##las": 966,
      "siste": 967,
      "fun": 968,
      "sol": 969,
      "196": 970,
      "##3,": 971,
      "Cam": 972,
      "últi": 973,
      "##mbro": 974,
      "def": 975,
      "##rito": 976,
      "7": 977,
      "tinha": 978,
      "##ribu": 979,
      "##bil": 980,
      "série": 981,
      "fic": 982,
      "prof": 983,
      "##agem": 984,
      "So": 985,
      "##inas": 986,
      "##ven": 987,
      "fal": 988,
      "É": 989,
      "difere": 990,
      "##ít": 991,
      "##ign": 992,
      "Ja": 993,
      "##inho": 994,
      "segundo": 995,
      "considera": 996,
      "15": 997,
      "filme": 998,
      "##ária": 999,
      "às": 1000,
      "##9,": 1001,
      "dist": 1002,
      "vis": 1003,
      "bem": 1004,
      "##quer": 1005,
      "Z": 1006,
      "Rio": 1007,
      "próp": 1008,
      "##esta": 1009,
      "bras": 1010,
      "estava": 1011,
      "Foi": 1012,
      "##ital": 1013,
      "desta": 1014,
      "8": 1015,
      "assim": 1016,
      "##inte": 1017,
      "partir": 1018,
      "##ília": 1019,
      "apresent": 1020,
      "havia": 1021,
      "mé": 1022,
      "teve": 1023,
      "Con": 1024,
      "##itas": 1025,
      "##olog": 1026,
      "dez": 1027,
      "outras": 1028,
      "##ndes": 1029,
      "##ências": 1030,
      "im": 1031,
      "atrav": 1032,
      "Paulo": 1033,
      "cu": 1034,
      "cul": 1035,
      "séc": 1036,
      "base": 1037,
      "##ipa": 1038,
      "##igo": 1039,
      "17": 1040,
      "lon": 1041,
      "##osto": 1042,
      "Ale": 1043,
      "##eiros": 1044,
      "publ": 1045,
      "##ris": 1046,
      "possu": 1047,
      "estre": 1048,
      "##são": 1049,
      "##ável": 1050,
      "##anha": 1051,
      "am": 1052,
      "##lan": 1053,
      "home": 1054,
      "brasile": 1055,
      "##mes": 1056,
      "númer": 1057,
      "##iros": 1058,
      "maio": 1059,
      "empres": 1060,
      "eles": 1061,
      "man": 1062,
      "pas": 1063,
      "repres": 1064,
      "desde": 1065,
      "##ipe": 1066,
      "utiliz": 1067,
      "##tação": 1068,
      "vida": 1069,
      "cent": 1070,
      "La": 1071,
      "Pro": 1072,
      "tro": 1073,
      "pou": 1074,
      "antes": 1075,
      "##dade": 1076,
      "##0.": 1077,
      "cada": 1078,
      "região": 1079,
      "##ero": 1080,
      "história": 1081,
      "##óg": 1082,
      "##orn": 1083,
      "la": 1084,
      "eram": 1085,
      "##ive": 1086,
      "##ble": 1087,
      "##ual": 1088,
      "alguns": 1089,
      "##odo": 1090,
      "##ério": 1091,
      "divers": 1092,
      "públ": 1093,
      "Po": 1094,
      "##ici": 1095,
      "##gia": 1096,
      "Ex": 1097,
      "épo": 1098,
      "##nça": 1099,
      "##tivos": 1100,
      "pessoas": 1101,
      "##tores": 1102,
      "munic": 1103,
      "consegu": 1104,
      "casa": 1105,
      "##grama": 1106,
      "##ticos": 1107,
      "##pon": 1108,
      "cond": 1109,
      "banda": 1110,
      "##des": 1111,
      "“": 1112,
      "##“": 1113,
      "deix": 1114,
      "através": 1115,
      "Gra": 1116,
      "9": 1117,
      "sete": 1118,
      "música": 1119,
      "cheg": 1120,
      "##tamente": 1121,
      "##,": 1122,
      "Bo": 1123,
      "mul": 1124,
      "##di": 1125,
      "época": 1126,
      "##ços": 1127,
      "##cre": 1128,
      "##int": 1129,
      "jogo": 1130,
      "##tion": 1131,
      "##ança": 1132,
      "Ne": 1133,
      "Estados": 1134,
      "##her": 1135,
      "amb": 1136,
      "comple": 1137,
      "perí": 1138,
      "enquanto": 1139,
      "##oria": 1140,
      "sim": 1141,
      "fund": 1142,
      "pes": 1143,
      "##icia": 1144,
      "##isa": 1145,
      "podem": 1146,
      "mundo": 1147,
      "apro": 1148,
      "##cas": 1149,
      "##ntro": 1150,
      "bo": 1151,
      "16": 1152,
      "##bel": 1153,
      "fe": 1154,
      "Lo": 1155,
      "##ice": 1156,
      "organ": 1157,
      "Cons": 1158,
      "##los": 1159,
      "novo": 1160,
      "governo": 1161,
      "##tugu": 1162,
      "##ulação": 1163,
      "##lig": 1164,
      "##fa": 1165,
      "além": 1166,
      "person": 1167,
      "importa": 1168,
      "aco": 1169,
      "Cas": 1170,
      "Ra": 1171,
      "##vent": 1172,
      "part": 1173,
      "pra": 1174,
      "proje": 1175,
      "vezes": 1176,
      "estado": 1177,
      "apo": 1178,
      "##ância": 1179,
      "século": 1180,
      "sistema": 1181,
      "##ze": 1182,
      "apare": 1183,
      "##ordo": 1184,
      "##igu": 1185,
      "##tre": 1186,
      "##gal": 1187,
      "194": 1188,
      "número": 1189,
      "195": 1190,
      "fez": 1191,
      "Ant": 1192,
      "10": 1193,
      "exem": 1194,
      "Unidos": 1195,
      "##cado": 1196,
      "##br": 1197,
      "##fre": 1198,
      "especial": 1199,
      "##edade": 1200,
      "val": 1201,
      "ale": 1202,
      "só": 1203,
      "tornou": 1204,
      "tít": 1205,
      "início": 1206,
      "col": 1207,
      "Te": 1208,
      "##rança": 1209,
      "vários": 1210,
      "##imo": 1211,
      "##oso": 1212,
      "##mã": 1213,
      "ven": 1214,
      "##elho": 1215,
      "recebe": 1216,
      "##nder": 1217,
      "resul": 1218,
      "##enh": 1219,
      "##issão": 1220,
      "Jos": 1221,
      "##vid": 1222,
      "trabalho": 1223,
      "ch": 1224,
      "##ient": 1225,
      "tendo": 1226,
      "Am": 1227,
      "##ila": 1228,
      "super": 1229,
      "##ill": 1230,
      "##-1": 1231,
      "Bar": 1232,
      "##lio": 1233,
      "To": 1234,
      "##ire": 1235,
      "continu": 1236,
      "subs": 1237,
      "local": 1238,
      "##ress": 1239,
      "Após": 1240,
      "esti": 1241,
      "12": 1242,
      "mud": 1243,
      "##ípio": 1244,
      "##tin": 1245,
      "vers": 1246,
      "lugar": 1247,
      "caus": 1248,
      "##esse": 1249,
      "geral": 1250,
      "##tório": 1251,
      "##esar": 1252,
      "mos": 1253,
      "período": 1254,
      "programa": 1255,
      "quatro": 1256,
      "isso": 1257,
      "tar": 1258,
      "##ulho": 1259,
      "##greja": 1260,
      "mod": 1261,
      "##ologia": 1262,
      "Um": 1263,
      "##unho": 1264,
      "déc": 1265,
      "##para": 1266,
      "Univers": 1267,
      "##ifica": 1268,
      "pla": 1269,
      "der": 1270,
      "produz": 1271,
      "##reira": 1272,
      "cur": 1273,
      "ún": 1274,
      "##tubro": 1275,
      "##hões": 1276,
      "##mel": 1277,
      "193": 1278,
      "escol": 1279,
      "##tivas": 1280,
      "##ov": 1281,
      "##fica": 1282,
      "pequ": 1283,
      "conta": 1284,
      "##ik": 1285,
      "##jo": 1286,
      "##ído": 1287,
      "família": 1288,
      "##gos": 1289,
      "Ent": 1290,
      "##ional": 1291,
      "Da": 1292,
      "Is": 1293,
      "colo": 1294,
      "##bora": 1295,
      "##rit": 1296,
      "Á": 1297,
      "med": 1298,
      "##und": 1299,
      "##éci": 1300,
      "lev": 1301,
      "##pri": 1302,
      "perm": 1303,
      "##ident": 1304,
      "Des": 1305,
      "Segu": 1306,
      "há": 1307,
      "In": 1308,
      "##bol": 1309,
      "principal": 1310,
      "Ou": 1311,
      "servi": 1312,
      "##rias": 1313,
      "ref": 1314,
      "ru": 1315,
      "ata": 1316,
      "Me": 1317,
      "temporada": 1318,
      "##iva": 1319,
      "##duz": 1320,
      "##ciais": 1321,
      "Ho": 1322,
      "##fia": 1323,
      "##.": 1324,
      "entanto": 1325,
      "##pec": 1326,
      "área": 1327,
      "art": 1328,
      "##par": 1329,
      "il": 1330,
      "diz": 1331,
      "comun": 1332,
      "Fa": 1333,
      "aca": 1334,
      "r": 1335,
      "public": 1336,
      "##osa": 1337,
      "fim": 1338,
      "##reiro": 1339,
      "lo": 1340,
      "lado": 1341,
      "outro": 1342,
      "##nas": 1343,
      "##ell": 1344,
      "##lube": 1345,
      "##meric": 1346,
      "##ecess": 1347,
      "cin": 1348,
      "II": 1349,
      "##udo": 1350,
      "começou": 1351,
      "##veu": 1352,
      "##cou": 1353,
      "cara": 1354,
      "##ts": 1355,
      "tur": 1356,
      "contro": 1357,
      "Ass": 1358,
      "volta": 1359,
      "##cri": 1360,
      "##ich": 1361,
      "num": 1362,
      "##osta": 1363,
      "todo": 1364,
      "acordo": 1365,
      "ocorre": 1366,
      "passou": 1367,
      "autor": 1368,
      "ali": 1369,
      "##erv": 1370,
      "##ução": 1371,
      "devido": 1372,
      "tarde": 1373,
      "##ques": 1374,
      "##eita": 1375,
      "estão": 1376,
      "encontra": 1377,
      "##tada": 1378,
      "–": 1379,
      "##–": 1380,
      "##bre": 1381,
      "##au": 1382,
      "##tante": 1383,
      "cerca": 1384,
      "##iano": 1385,
      "morte": 1386,
      "##amb": 1387,
      "##ída": 1388,
      "The": 1389,
      "sal": 1390,
      "##ixo": 1391,
      "Fer": 1392,
      "##ón": 1393,
      "várias": 1394,
      "necess": 1395,
      "k": 1396,
      "Or": 1397,
      "##The": 1398,
      "##ndia": 1399,
      "capa": 1400,
      "sur": 1401,
      "##iras": 1402,
      "##and": 1403,
      "##ry": 1404,
      "ep": 1405,
      "##minist": 1406,
      "melhor": 1407,
      "##rios": 1408,
      "##sos": 1409,
      "norte": 1410,
      "obje": 1411,
      "##cess": 1412,
      "via": 1413,
      "##ndial": 1414,
      "muitos": 1415,
      "exemplo": 1416,
      "filho": 1417,
      "##ins": 1418,
      "Franc": 1419,
      "conhecido": 1420,
      "prov": 1421,
      "Sul": 1422,
      "meio": 1423,
      "Col": 1424,
      "passa": 1425,
      "14": 1426,
      "##mou": 1427,
      "resp": 1428,
      "##iram": 1429,
      "##ivo": 1430,
      "Uma": 1431,
      "desco": 1432,
      "11": 1433,
      "fazer": 1434,
      "##lus": 1435,
      "##lica": 1436,
      "total": 1437,
      "Fe": 1438,
      "min": 1439,
      "##pel": 1440,
      "##tural": 1441,
      "aju": 1442,
      "##ática": 1443,
      "nu": 1444,
      "##ixa": 1445,
      "Tra": 1446,
      "va": 1447,
      "segunda": 1448,
      "ped": 1449,
      "algumas": 1450,
      "##ense": 1451,
      "econ": 1452,
      "João": 1453,
      "formula": 1454,
      "Janeiro": 1455,
      "portugu": 1456,
      "seguinte": 1457,
      "##mão": 1458,
      "##óx": 1459,
      "##eno": 1460,
      "título": 1461,
      "men": 1462,
      "Euro": 1463,
      "##onato": 1464,
      "rev": 1465,
      "##cter": 1466,
      "seria": 1467,
      "produção": 1468,
      "el": 1469,
      "Man": 1470,
      "##rin": 1471,
      "་": 1472,
      "།": 1473,
      "aqu": 1474,
      "Ta": 1475,
      "##ten": 1476,
      "Estado": 1477,
      "equipe": 1478,
      "Maria": 1479,
      "tri": 1480,
      "##ológ": 1481,
      "trabalh": 1482,
      "##écn": 1483,
      "escri": 1484,
      "todas": 1485,
      "ing": 1486,
      "##érci": 1487,
      "situ": 1488,
      "plan": 1489,
      "década": 1490,
      "grandes": 1491,
      "13": 1492,
      "sign": 1493,
      "Durante": 1494,
      "##gens": 1495,
      "terc": 1496,
      "grav": 1497,
      "conqu": 1498,
      "##up": 1499,
      "##ang": 1500,
      "Pe": 1501,
      "pois": 1502,
      "afir": 1503,
      "##.\"": 1504,
      "José": 1505,
      "tele": 1506,
      "##peonato": 1507,
      "Inter": 1508,
      "##sas": 1509,
      "tre": 1510,
      "outubro": 1511,
      "dezembro": 1512,
      "lançado": 1513,
      "lib": 1514,
      "##íci": 1515,
      "##ora": 1516,
      "pare": 1517,
      "sucesso": 1518,
      "conte": 1519,
      "participa": 1520,
      "população": 1521,
      "##ulos": 1522,
      "##000": 1523,
      "Entre": 1524,
      "##terior": 1525,
      "192": 1526,
      "##tebol": 1527,
      "menos": 1528,
      "milhões": 1529,
      "##dios": 1530,
      "##ale": 1531,
      "numa": 1532,
      "Esta": 1533,
      "##ál": 1534,
      "localiz": 1535,
      "##vereiro": 1536,
      "##gue": 1537,
      "oficial": 1538,
      "##panha": 1539,
      "##usic": 1540,
      "##teg": 1541,
      "##tria": 1542,
      "janeiro": 1543,
      "setembro": 1544,
      "município": 1545,
      "franc": 1546,
      "seja": 1547,
      "class": 1548,
      "##[": 1549,
      "##ke": 1550,
      "derro": 1551,
      "##tando": 1552,
      "Cor": 1553,
      "influ": 1554,
      "##vação": 1555,
      "##eio": 1556,
      "##gas": 1557,
      "၊": 1558,
      "။": 1559,
      "၌": 1560,
      "၍": 1561,
      "၎": 1562,
      "၏": 1563,
      "dias": 1564,
      "chamado": 1565,
      "##mpre": 1566,
      "sul": 1567,
      "pai": 1568,
      "qualquer": 1569,
      "março": 1570,
      "cole": 1571,
      "Ga": 1572,
      "##riz": 1573,
      "defin": 1574,
      "An": 1575,
      "anter": 1576,
      "opera": 1577,
      "##tugal": 1578,
      "##té": 1579,
      "Nacional": 1580,
      "##2.": 1581,
      "Universidade": 1582,
      "espéci": 1583,
      "##bita": 1584,
      "##isó": 1585,
      "Nova": 1586,
      "bas": 1587,
      "##pais": 1588,
      "mesma": 1589,
      "##ornal": 1590,
      "##cação": 1591,
      "junho": 1592,
      "##ações": 1593,
      "191": 1594,
      "##nacional": 1595,
      "perman": 1596,
      "##tanto": 1597,
      "dispu": 1598,
      "##inh": 1599,
      "agosto": 1600,
      "##anc": 1601,
      "Como": 1602,
      "Depois": 1603,
      "##xo": 1604,
      "##igos": 1605,
      "original": 1606,
      "Be": 1607,
      "##ime": 1608,
      "##bra": 1609,
      "proble": 1610,
      "coma": 1611,
      "##tivamente": 1612,
      "Ju": 1613,
      "abril": 1614,
      "muitas": 1615,
      "mon": 1616,
      "novembro": 1617,
      "julho": 1618,
      "versão": 1619,
      "##ari": 1620,
      "the": 1621,
      "existe": 1622,
      "mor": 1623,
      "Portugal": 1624,
      "##él": 1625,
      "Guerra": 1626,
      "Ad": 1627,
      "##cionais": 1628,
      "Além": 1629,
      "caracter": 1630,
      "##ise": 1631,
      "espa": 1632,
      "escre": 1633,
      "maioria": 1634,
      "##ército": 1635,
      "sent": 1636,
      "##imento": 1637,
      "arqu": 1638,
      "longo": 1639,
      "presidente": 1640,
      "##ença": 1641,
      "acab": 1642,
      "Quando": 1643,
      "ganh": 1644,
      "Mas": 1645,
      "##eses": 1646,
      "quais": 1647,
      "compe": 1648,
      "principais": 1649,
      "##turas": 1650,
      "Ol": 1651,
      "caso": 1652,
      "##ric": 1653,
      "##vis": 1654,
      "##gado": 1655,
      "Fil": 1656,
      "##od": 1657,
      "guerra": 1658,
      "disso": 1659,
      "Ela": 1660,
      "mã": 1661,
      "crí": 1662,
      "##\")": 1663,
      "cres": 1664,
      "##rb": 1665,
      "ví": 1666,
      "##orma": 1667,
      "##red": 1668,
      "##ía": 1669,
      "obs": 1670,
      "##vas": 1671,
      "##tido": 1672,
      "processo": 1673,
      "##inos": 1674,
      "ativ": 1675,
      "pelas": 1676,
      "gen": 1677,
      "recebeu": 1678,
      "##ff": 1679,
      "próx": 1680,
      "Este": 1681,
      "##mbros": 1682,
      "Ao": 1683,
      "sempre": 1684,
      "cinco": 1685,
      "##íveis": 1686,
      "##iões": 1687,
      "##isco": 1688,
      "recon": 1689,
      "cha": 1690,
      "ef": 1691,
      "lig": 1692,
      "incluindo": 1693,
      "##mica": 1694,
      "pouco": 1695,
      "##nando": 1696,
      "##cil": 1697,
      "particip": 1698,
      "##gio": 1699,
      "uso": 1700,
      "canção": 1701,
      "##unci": 1702,
      "##pro": 1703,
      "Cent": 1704,
      "##ndas": 1705,
      "obra": 1706,
      "mer": 1707,
      "##pas": 1708,
      "##5.": 1709,
      "##nce": 1710,
      "conju": 1711,
      "relação": 1712,
      "Ha": 1713,
      "técn": 1714,
      "Do": 1715,
      "gol": 1716,
      "quar": 1717,
      "fer": 1718,
      "toda": 1719,
      "posição": 1720,
      "##iana": 1721,
      "livro": 1722,
      "‖": 1723,
      "‚": 1724,
      "„": 1725,
      "‟": 1726,
      "†": 1727,
      "‡": 1728,
      "•": 1729,
      "․": 1730,
      "‥": 1731,
      "‧": 1732,
      "‰": 1733,
      "′": 1734,
      "″": 1735,
      "‹": 1736,
      "›": 1737,
      "※": 1738,
      "‿": 1739,
      "Per": 1740,
      "##érica": 1741,
      "carreira": 1742,
      "lim": 1743,
      "ten": 1744,
      "Joh": 1745,
      "vit": 1746,
      "substitu": 1747,
      "ens": 1748,
      "terri": 1749,
      "##anos": 1750,
      "⁾": 1751,
      "real": 1752,
      "episó": 1753,
      "rei": 1754,
      "diferentes": 1755,
      "desenvolvimento": 1756,
      "z": 1757,
      "##bilidade": 1758,
      "##rão": 1759,
      "Grande": 1760,
      "integra": 1761,
      "₍": 1762,
      "₎": 1763,
      "##how": 1764,
      "Du": 1765,
      "má": 1766,
      "ficou": 1767,
      "relig": 1768,
      "##all": 1769,
      "deter": 1770,
      "##1.": 1771,
      "nacional": 1772,
      "##ruz": 1773,
      "clube": 1774,
      "países": 1775,
      "possui": 1776,
      "envol": 1777,
      "projeto": 1778,
      "constitu": 1779,
      "##icamente": 1780,
      "##mana": 1781,
      "represent": 1782,
      "##fo": 1783,
      "termin": 1784,
      "##oss": 1785,
      "##8.": 1786,
      "##4.": 1787,
      "público": 1788,
      "##eitos": 1789,
      "hoje": 1790,
      "##ibil": 1791,
      "promo": 1792,
      "cir": 1793,
      "##6.": 1794,
      "lança": 1795,
      "fora": 1796,
      "##ud": 1797,
      "papel": 1798,
      "empresa": 1799,
      "int": 1800,
      "El": 1801,
      "##ndida": 1802,
      "construção": 1803,
      "porém": 1804,
      "aconte": 1805,
      "##3.": 1806,
      "And": 1807,
      "##ilo": 1808,
      "alc": 1809,
      "retor": 1810,
      "##ecu": 1811,
      "fevereiro": 1812,
      "##agens": 1813,
      "##ph": 1814,
      "tal": 1815,
      "##ian": 1816,
      "##mina": 1817,
      "compos": 1818,
      "mostra": 1819,
      "corre": 1820,
      "quase": 1821,
      "refer": 1822,
      "membros": 1823,
      "jov": 1824,
      "##endo": 1825,
      "##istência": 1826,
      "##II": 1827,
      "Go": 1828,
      "〈": 1829,
      "〉": 1830,
      "corpo": 1831,
      "##tel": 1832,
      "Ped": 1833,
      "##7.": 1834,
      "tec": 1835,
      "Nos": 1836,
      "política": 1837,
      "Santa": 1838,
      "dentro": 1839,
      "##peri": 1840,
      "gera": 1841,
      "Sua": 1842,
      "##deral": 1843,
      "lí": 1844,
      "##amento": 1845,
      "auto": 1846,
      "comer": 1847,
      "importante": 1848,
      "estru": 1849,
      "ima": 1850,
      "prec": 1851,
      "pad": 1852,
      "embora": 1853,
      "têm": 1854,
      "capital": 1855,
      "organiz": 1856,
      "##one": 1857,
      "outra": 1858,
      "##cido": 1859,
      "obras": 1860,
      "Can": 1861,
      "##inado": 1862,
      "lin": 1863,
      "frequ": 1864,
      "##our": 1865,
      "##pla": 1866,
      "primeiros": 1867,
      "##iver": 1868,
      "##tamento": 1869,
      "##sia": 1870,
      "aber": 1871,
      "administ": 1872,
      "##iores": 1873,
      "##ública": 1874,
      "##asse": 1875,
      "informa": 1876,
      "pal": 1877,
      "⟨": 1878,
      "⟩": 1879,
      "##ick": 1880,
      "、": 1881,
      "。": 1882,
      "〃": 1883,
      "inde": 1884,
      "##ron": 1885,
      "〈": 1886,
      "〉": 1887,
      "《": 1888,
      "》": 1889,
      "「": 1890,
      "」": 1891,
      "『": 1892,
      "』": 1893,
      "【": 1894,
      "】": 1895,
      "quad": 1896,
      "〔": 1897,
      "〕": 1898,
      "〖": 1899,
      "〗": 1900,
      "〜": 1901,
      "〝": 1902,
      "tipo": 1903,
      "leva": 1904,
      "significa": 1905,
      "25": 1906,
      "dem": 1907,
      "##eiras": 1908,
      "conhe": 1909,
      "brasileiro": 1910,
      "Min": 1911,
      "Igreja": 1912,
      "##íf": 1913,
      "interpre": 1914,
      "Ber": 1915,
      "##ex": 1916,
      "ide": 1917,
      "##ificação": 1918,
      "rá": 1919,
      "Sal": 1920,
      "essa": 1921,
      "##ntas": 1922,
      "bar": 1923,
      "##9.": 1924,
      "fra": 1925,
      "morre": 1926,
      "##cel": 1927,
      "Cl": 1928,
      "##visão": 1929,
      "##ndente": 1930,
      "##ritân": 1931,
      "##ses": 1932,
      "##uman": 1933,
      "30": 1934,
      "tent": 1935,
      "##quia": 1936,
      "Ver": 1937,
      "av": 1938,
      "##ub": 1939,
      "##tiu": 1940,
      "ja": 1941,
      "##pol": 1942,
      "##nças": 1943,
      "##cais": 1944,
      "cal": 1945,
      "próprio": 1946,
      "pesqu": 1947,
      "Sen": 1948,
      "##ka": 1949,
      "desa": 1950,
      "prog": 1951,
      "Ed": 1952,
      "principalmente": 1953,
      "##wa": 1954,
      "jornal": 1955,
      "ga": 1956,
      "último": 1957,
      "Seu": 1958,
      "Tamb": 1959,
      "jogos": 1960,
      "and": 1961,
      "##ong": 1962,
      "En": 1963,
      "##eles": 1964,
      "##áveis": 1965,
      "esse": 1966,
      "habita": 1967,
      "fica": 1968,
      "americ": 1969,
      "##eta": 1970,
      "tanto": 1971,
      "##reas": 1972,
      "##ut": 1973,
      "##gação": 1974,
      "França": 1975,
      "vi": 1976,
      "quem": 1977,
      "##xim": 1978,
      "social": 1979,
      "Ac": 1980,
      "deve": 1981,
      "junto": 1982,
      "Ins": 1983,
      "ri": 1984,
      "Sh": 1985,
      "Também": 1986,
      "##ind": 1987,
      "##com": 1988,
      "##ônia": 1989,
      "asso": 1990,
      "água": 1991,
      "Ge": 1992,
      "novamente": 1993,
      "##eria": 1994,
      "##iel": 1995,
      "disse": 1996,
      "centro": 1997,
      "luta": 1998,
      "linha": 1999,
      "experi": 2000,
      "##land": 2001,
      "deu": 2002,
      "lín": 2003,
      "propri": 2004,
      "##emin": 2005,
      "regist": 2006,
      "Brasile": 2007,
      "origem": 2008,
      "ponto": 2009,
      "—": 2010,
      "##—": 2011,
      "##berto": 2012,
      "mater": 2013,
      "##cho": 2014,
      "Carlos": 2015,
      "revel": 2016,
      "##adora": 2017,
      "popular": 2018,
      "##ene": 2019,
      "Cal": 2020,
      "##ly": 2021,
      "dirig": 2022,
      "##..": 2023,
      "ating": 2024,
      "Imp": 2025,
      "anima": 2026,
      "Esc": 2027,
      "##nca": 2028,
      "##vio": 2029,
      "##rais": 2030,
      "Pol": 2031,
      "##iri": 2032,
      "##ulares": 2033,
      "##cha": 2034,
      "institu": 2035,
      "lhe": 2036,
      "##xa": 2037,
      "pontos": 2038,
      "##vesti": 2039,
      "##pend": 2040,
      "##che": 2041,
      "##bri": 2042,
      "anunci": 2043,
      "logo": 2044,
      "inicia": 2045,
      "##inais": 2046,
      "proc": 2047,
      "##iar": 2048,
      "povo": 2049,
      "##tens": 2050,
      "##01": 2051,
      "chamada": 2052,
      "Fre": 2053,
      "Fu": 2054,
      "##ped": 2055,
      "##eric": 2056,
      "Sil": 2057,
      "##ionais": 2058,
      "##ustr": 2059,
      "edição": 2060,
      "##essa": 2061,
      "##pen": 2062,
      "##lic": 2063,
      "apresenta": 2064,
      "##adamente": 2065,
      "##tual": 2066,
      "Apesar": 2067,
      "・": 2068,
      "cant": 2069,
      "diversas": 2070,
      "##ndeu": 2071,
      "estavam": 2072,
      "##igh": 2073,
      "eleito": 2074,
      "TV": 2075,
      "##ys": 2076,
      "##pública": 2077,
      "expl": 2078,
      "##pira": 2079,
      "chegou": 2080,
      "personagem": 2081,
      "sus": 2082,
      "conhecida": 2083,
      "##ciedade": 2084,
      "Norte": 2085,
      "diversos": 2086,
      "##ônio": 2087,
      "Mundial": 2088,
      "relacion": 2089,
      "Ab": 2090,
      "Pal": 2091,
      "Europa": 2092,
      "##ética": 2093,
      "América": 2094,
      "anterior": 2095,
      "##tif": 2096,
      "##tem": 2097,
      "##posição": 2098,
      "fato": 2099,
      "##vida": 2100,
      "amp": 2101,
      "##ingle": 2102,
      "##upa": 2103,
      "##inham": 2104,
      "determin": 2105,
      "ident": 2106,
      "exib": 2107,
      "Roma": 2108,
      "pala": 2109,
      "melho": 2110,
      "comb": 2111,
      "meses": 2112,
      "porque": 2113,
      "funcion": 2114,
      "movimento": 2115,
      "Au": 2116,
      "##ística": 2117,
      "##gues": 2118,
      "##órias": 2119,
      "representa": 2120,
      "decid": 2121,
      "##xto": 2122,
      "##mentar": 2123,
      "forte": 2124,
      "##talha": 2125,
      "Mé": 2126,
      "##reg": 2127,
      "neg": 2128,
      "Reg": 2129,
      "irmã": 2130,
      "deno": 2131,
      "##olo": 2132,
      "moder": 2133,
      "op": 2134,
      "fin": 2135,
      "##vento": 2136,
      "tenta": 2137,
      "##itor": 2138,
      "seis": 2139,
      "Bra": 2140,
      "sí": 2141,
      "í": 2142,
      "fro": 2143,
      "Pr": 2144,
      "Wil": 2145,
      "##cendo": 2146,
      "estad": 2147,
      "##tan": 2148,
      "##dução": 2149,
      "km": 2150,
      "##iente": 2151,
      "##eb": 2152,
      "transm": 2153,
      "conjunto": 2154,
      "Pri": 2155,
      "Copa": 2156,
      "pint": 2157,
      "##vem": 2158,
      "empre": 2159,
      "feito": 2160,
      "indiv": 2161,
      "##tt": 2162,
      "Reino": 2163,
      "For": 2164,
      "cultura": 2165,
      "deste": 2166,
      "##cle": 2167,
      "##teriormente": 2168,
      "idade": 2169,
      "##nador": 2170,
      "fase": 2171,
      "espec": 2172,
      "##adeira": 2173,
      "Comp": 2174,
      "##cto": 2175,
      "##ãos": 2176,
      "##culo": 2177,
      "estilo": 2178,
      "##gora": 2179,
      "##âne": 2180,
      "##ples": 2181,
      "momento": 2182,
      "escola": 2183,
      "desem": 2184,
      "##tiz": 2185,
      "##gon": 2186,
      "rio": 2187,
      "##wn": 2188,
      "vel": 2189,
      "##form": 2190,
      "##ulas": 2191,
      "##posta": 2192,
      "##ód": 2193,
      "##ácio": 2194,
      "Segundo": 2195,
      "mãe": 2196,
      "##urso": 2197,
      "##áss": 2198,
      "possível": 2199,
      "futebol": 2200,
      "grupos": 2201,
      "maiores": 2202,
      "criação": 2203,
      "##boa": 2204,
      "Pedro": 2205,
      "inicial": 2206,
      "expres": 2207,
      "##radas": 2208,
      "Mil": 2209,
      "##heres": 2210,
      "profiss": 2211,
      "palav": 2212,
      "##inema": 2213,
      "##entemente": 2214,
      "##art": 2215,
      "##estão": 2216,
      "homens": 2217,
      "ofere": 2218,
      "Algu": 2219,
      "##ínio": 2220,
      "cidades": 2221,
      "##ardo": 2222,
      "pré": 2223,
      "##ki": 2224,
      "Ru": 2225,
      "resta": 2226,
      "##cam": 2227,
      "lançamento": 2228,
      "##ley": 2229,
      "John": 2230,
      "bus": 2231,
      "único": 2232,
      "atual": 2233,
      "norma": 2234,
      "24": 2235,
      "Campeonato": 2236,
      "nenh": 2237,
      "campe": 2238,
      "alcanç": 2239,
      "##ráf": 2240,
      "lei": 2241,
      "canto": 2242,
      "perde": 2243,
      "campo": 2244,
      "##gi": 2245,
      "execu": 2246,
      "##dores": 2247,
      "##vor": 2248,
      "quanto": 2249,
      "21": 2250,
      "ado": 2251,
      "cos": 2252,
      "disco": 2253,
      "investi": 2254,
      "Lis": 2255,
      "##zo": 2256,
      "competi": 2257,
      "Nas": 2258,
      "reun": 2259,
      "militar": 2260,
      "valor": 2261,
      "XV": 2262,
      "##erva": 2263,
      "##nia": 2264,
      "##mara": 2265,
      "Ing": 2266,
      "filha": 2267,
      "Porto": 2268,
      "##orr": 2269,
      "nível": 2270,
      "##zes": 2271,
      "assum": 2272,
      "##ner": 2273,
      "##bele": 2274,
      "afirma": 2275,
      "áreas": 2276,
      "modo": 2277,
      "Dire": 2278,
      "##ler": 2279,
      "respons": 2280,
      "simples": 2281,
      "Bu": 2282,
      "##rados": 2283,
      "##ya": 2284,
      "Ser": 2285,
      "conseguiu": 2286,
      "decl": 2287,
      "própria": 2288,
      "distribu": 2289,
      "##melha": 2290,
      "##isso": 2291,
      "filhos": 2292,
      "music": 2293,
      "##ntamente": 2294,
      "inici": 2295,
      "Super": 2296,
      "0": 2297,
      "event": 2298,
      "Ang": 2299,
      "##porte": 2300,
      "##uais": 2301,
      "##lores": 2302,
      "##izado": 2303,
      "considerado": 2304,
      "##ivil": 2305,
      "Ag": 2306,
      "##elas": 2307,
      "##bar": 2308,
      "##oro": 2309,
      "prova": 2310,
      "Pres": 2311,
      "categ": 2312,
      "Assim": 2313,
      "instru": 2314,
      "At": 2315,
      "her": 2316,
      "er": 2317,
      "causa": 2318,
      "cient": 2319,
      "##atos": 2320,
      "##ísticas": 2321,
      "pl": 2322,
      "##quele": 2323,
      "##ger": 2324,
      "Rec": 2325,
      "República": 2326,
      "##orge": 2327,
      "##manha": 2328,
      "##americ": 2329,
      "He": 2330,
      "Paul": 2331,
      "##mais": 2332,
      "##ier": 2333,
      "100": 2334,
      "##tualmente": 2335,
      "22": 2336,
      "et": 2337,
      "última": 2338,
      "##vil": 2339,
      "britân": 2340,
      "sele": 2341,
      "Francisco": 2342,
      "geralmente": 2343,
      "vari": 2344,
      "##êmio": 2345,
      "##den": 2346,
      "apoio": 2347,
      "##essor": 2348,
      "##menta": 2349,
      "dom": 2350,
      "força": 2351,
      "ener": 2352,
      "##ork": 2353,
      "voc": 2354,
      "pref": 2355,
      "##ft": 2356,
      "jogador": 2357,
      "Hen": 2358,
      "docu": 2359,
      "fos": 2360,
      "destru": 2361,
      "perte": 2362,
      "espaço": 2363,
      "nunca": 2364,
      "tinham": 2365,
      "surg": 2366,
      "episódio": 2367,
      "direito": 2368,
      "##bur": 2369,
      "##vos": 2370,
      "televisão": 2371,
      "##ôm": 2372,
      "##íg": 2373,
      "ev": 2374,
      "frente": 2375,
      "forças": 2376,
      "pen": 2377,
      "190": 2378,
      "show": 2379,
      "conse": 2380,
      "##velmente": 2381,
      "##cada": 2382,
      "arte": 2383,
      "bair": 2384,
      "mant": 2385,
      "##ultura": 2386,
      "##dar": 2387,
      "estrutura": 2388,
      "ol": 2389,
      "metros": 2390,
      "dados": 2391,
      "formação": 2392,
      "edu": 2393,
      "problemas": 2394,
      "companh": 2395,
      "exército": 2396,
      "homem": 2397,
      "histór": 2398,
      "##volução": 2399,
      "##lâ": 2400,
      "inv": 2401,
      "terceiro": 2402,
      "função": 2403,
      "##dou": 2404,
      "marca": 2405,
      "##rações": 2406,
      "##intes": 2407,
      "Lisboa": 2408,
      "##mental": 2409,
      "território": 2410,
      "##ntemente": 2411,
      "##ren": 2412,
      "##rist": 2413,
      "##lub": 2414,
      "roma": 2415,
      "Emb": 2416,
      "Ste": 2417,
      "human": 2418,
      "##ipal": 2419,
      "##cidade": 2420,
      "varia": 2421,
      "##reto": 2422,
      "Alemanha": 2423,
      "##pare": 2424,
      "##]]": 2425,
      "##tur": 2426,
      "##bate": 2427,
      "revista": 2428,
      "religios": 2429,
      "##har": 2430,
      "estabele": 2431,
      "novos": 2432,
      "Val": 2433,
      "vitória": 2434,
      "189": 2435,
      "tradic": 2436,
      "permane": 2437,
      "id": 2438,
      "princ": 2439,
      "apesar": 2440,
      "##tenção": 2441,
      "Cap": 2442,
      "##ntar": 2443,
      "lidera": 2444,
      "##omia": 2445,
      "##iza": 2446,
      "##lês": 2447,
      "son": 2448,
      "##gn": 2449,
      "divid": 2450,
      "##úde": 2451,
      "candida": 2452,
      "resultado": 2453,
      "##seu": 2454,
      "defe": 2455,
      "##culos": 2456,
      "denomin": 2457,
      "Institu": 2458,
      "mulheres": 2459,
      "##jas": 2460,
      "dele": 2461,
      "##icion": 2462,
      "liber": 2463,
      "##ese": 2464,
      "filmes": 2465,
      "cargo": 2466,
      "acabou": 2467,
      "exp": 2468,
      "##'": 2469,
      "##maz": 2470,
      "teria": 2471,
      "##iado": 2472,
      "ganhou": 2473,
      "##\"\"": 2474,
      "irmão": 2475,
      "termo": 2476,
      "vir": 2477,
      "importantes": 2478,
      "única": 2479,
      "terra": 2480,
      "diretor": 2481,
      "cola": 2482,
      "##ced": 2483,
      "usado": 2484,
      "Pra": 2485,
      "figu": 2486,
      "##pida": 2487,
      "##ward": 2488,
      "##ciação": 2489,
      "participação": 2490,
      "Cont": 2491,
      "##ane": 2492,
      "Sou": 2493,
      "víde": 2494,
      "##isas": 2495,
      "sede": 2496,
      "##bert": 2497,
      "gre": 2498,
      "controle": 2499,
      "conver": 2500,
      "Tem": 2501,
      "Lei": 2502,
      "membro": 2503,
      "time": 2504,
      "musical": 2505,
      "23": 2506,
      "##lmente": 2507,
      "comum": 2508,
      "brasileira": 2509,
      "ge": 2510,
      "Mais": 2511,
      "##tí": 2512,
      "##ater": 2513,
      "tão": 2514,
      "##su": 2515,
      "##étr": 2516,
      "média": 2517,
      "##ok": 2518,
      "modelo": 2519,
      "arquite": 2520,
      "espera": 2521,
      "##hão": 2522,
      "quant": 2523,
      "##nsa": 2524,
      "##vado": 2525,
      "ilha": 2526,
      "##fr": 2527,
      "Federal": 2528,
      "somente": 2529,
      "##izada": 2530,
      "separa": 2531,
      "##ort": 2532,
      "apre": 2533,
      "novas": 2534,
      "agora": 2535,
      "língua": 2536,
      "##rando": 2537,
      "Deus": 2538,
      "##ity": 2539,
      "enfre": 2540,
      "vai": 2541,
      "Não": 2542,
      "euro": 2543,
      "crist": 2544,
      "ital": 2545,
      "Edu": 2546,
      "acred": 2547,
      "locais": 2548,
      "habitantes": 2549,
      "##iter": 2550,
      "rede": 2551,
      "##inhos": 2552,
      "##ames": 2553,
      "New": 2554,
      "##mada": 2555,
      "fís": 2556,
      "antiga": 2557,
      "##-2": 2558,
      "contribu": 2559,
      "##ture": 2560,
      "prote": 2561,
      "conquista": 2562,
      "##perador": 2563,
      "##cra": 2564,
      "ajuda": 2565,
      "branc": 2566,
      "igreja": 2567,
      "##uel": 2568,
      "viv": 2569,
      "espanh": 2570,
      "tais": 2571,
      "méd": 2572,
      "##ceram": 2573,
      "##âmara": 2574,
      "seguintes": 2575,
      "serviço": 2576,
      "##tri": 2577,
      "##terra": 2578,
      "##vendo": 2579,
      "##ícios": 2580,
      "##vada": 2581,
      "reti": 2582,
      "Império": 2583,
      "acomp": 2584,
      "estú": 2585,
      "dispon": 2586,
      "envi": 2587,
      "sofre": 2588,
      "fosse": 2589,
      "seguida": 2590,
      "##resso": 2591,
      "ambos": 2592,
      "28": 2593,
      "##tão": 2594,
      "estudos": 2595,
      "direção": 2596,
      "edif": 2597,
      "##hou": 2598,
      "##tam": 2599,
      "antigo": 2600,
      "ordem": 2601,
      "lançou": 2602,
      "##posa": 2603,
      "##belec": 2604,
      "##ré": 2605,
      "mulher": 2606,
      "del": 2607,
      "energia": 2608,
      "##ún": 2609,
      "##ntou": 2610,
      "##ificado": 2611,
      "Dan": 2612,
      "interes": 2613,
      "##men": 2614,
      "##sen": 2615,
      "Bro": 2616,
      "Mel": 2617,
      "##ânia": 2618,
      "Med": 2619,
      "disc": 2620,
      "##ney": 2621,
      "##pão": 2622,
      "##inar": 2623,
      "transfer": 2624,
      "##ramas": 2625,
      "espécies": 2626,
      "Ter": 2627,
      "levou": 2628,
      "##iveram": 2629,
      "objetivo": 2630,
      "Ka": 2631,
      "XI": 2632,
      "26": 2633,
      "##fici": 2634,
      "##guas": 2635,
      "fazendo": 2636,
      "abs": 2637,
      "exc": 2638,
      "pais": 2639,
      "##itado": 2640,
      "personagens": 2641,
      "internacional": 2642,
      "dever": 2643,
      "Ben": 2644,
      "presença": 2645,
      "##mado": 2646,
      "##cida": 2647,
      "campanha": 2648,
      "##cente": 2649,
      "##xe": 2650,
      "sex": 2651,
      "equip": 2652,
      "leg": 2653,
      "serviços": 2654,
      "intro": 2655,
      "jovem": 2656,
      "Itá": 2657,
      "inglês": 2658,
      "gên": 2659,
      "tenha": 2660,
      "##dap": 2661,
      "##lhe": 2662,
      "receb": 2663,
      "Eles": 2664,
      "univers": 2665,
      "##una": 2666,
      "cinema": 2667,
      "##inc": 2668,
      "igu": 2669,
      "português": 2670,
      "prop": 2671,
      "##íl": 2672,
      "##estiv": 2673,
      "União": 2674,
      "Har": 2675,
      "exer": 2676,
      "dese": 2677,
      "he": 2678,
      "atribu": 2679,
      "27": 2680,
      "huma": 2681,
      "político": 2682,
      "##ursos": 2683,
      "ate": 2684,
      "escrito": 2685,
      "poderia": 2686,
      "recu": 2687,
      "##ãs": 2688,
      "188": 2689,
      "Terra": 2690,
      "##tadores": 2691,
      "central": 2692,
      "tecn": 2693,
      "escreveu": 2694,
      "Embora": 2695,
      "##dição": 2696,
      "alemã": 2697,
      "##cios": 2698,
      "interior": 2699,
      "vice": 2700,
      "organização": 2701,
      "w": 2702,
      "Desde": 2703,
      "##iciais": 2704,
      "ó": 2705,
      "##ixas": 2706,
      "sociedade": 2707,
      "Paris": 2708,
      "resol": 2709,
      "resid": 2710,
      "natural": 2711,
      "##eias": 2712,
      "mont": 2713,
      "nasceu": 2714,
      "Itália": 2715,
      "lar": 2716,
      "aband": 2717,
      "##volu": 2718,
      "##gh": 2719,
      "##into": 2720,
      "##tadas": 2721,
      "Alex": 2722,
      "explo": 2723,
      "criado": 2724,
      "##ônica": 2725,
      "##enos": 2726,
      "gara": 2727,
      "Minist": 2728,
      "alta": 2729,
      "##ouve": 2730,
      "descre": 2731,
      "##ará": 2732,
      "##can": 2733,
      "atividades": 2734,
      "Mad": 2735,
      "serem": 2736,
      "##gent": 2737,
      "##ibilidade": 2738,
      "##erais": 2739,
      "evento": 2740,
      "Her": 2741,
      "##ps": 2742,
      "milita": 2743,
      "estran": 2744,
      "tudo": 2745,
      "##cando": 2746,
      "especialmente": 2747,
      "favor": 2748,
      "##pção": 2749,
      "atualmente": 2750,
      "abri": 2751,
      "##laterra": 2752,
      "Mc": 2753,
      "particular": 2754,
      "##umb": 2755,
      "##by": 2756,
      "##ático": 2757,
      "##ori": 2758,
      "Espanha": 2759,
      "pessoa": 2760,
      "Tri": 2761,
      "##tim": 2762,
      "Lond": 2763,
      "ban": 2764,
      "estar": 2765,
      "##ume": 2766,
      "semana": 2767,
      "##quência": 2768,
      "elementos": 2769,
      "##ty": 2770,
      "Internacional": 2771,
      "esposa": 2772,
      "Fl": 2773,
      "##ídos": 2774,
      "##ôme": 2775,
      "##ider": 2776,
      "Cha": 2777,
      "apar": 2778,
      "eu": 2779,
      "bastante": 2780,
      "Já": 2781,
      "##augu": 2782,
      "##ár": 2783,
      "##ith": 2784,
      "Inglaterra": 2785,
      "empresas": 2786,
      "eng": 2787,
      "data": 2788,
      "deixou": 2789,
      "Santo": 2790,
      "comercial": 2791,
      "nomeado": 2792,
      "dedic": 2793,
      "##ulado": 2794,
      "Japão": 2795,
      "primeiras": 2796,
      "##estival": 2797,
      "nem": 2798,
      "##cados": 2799,
      "músicas": 2800,
      "posteriormente": 2801,
      "declara": 2802,
      "cus": 2803,
      "inaugu": 2804,
      "##usti": 2805,
      "responsável": 2806,
      "funda": 2807,
      "##&": 2808,
      "estabelec": 2809,
      "será": 2810,
      "desse": 2811,
      "##cem": 2812,
      "Il": 2813,
      "Je": 2814,
      "Mic": 2815,
      "partida": 2816,
      "##pes": 2817,
      "ór": 2818,
      "assass": 2819,
      "design": 2820,
      "maneira": 2821,
      "dar": 2822,
      "Munic": 2823,
      "influência": 2824,
      "##inheiro": 2825,
      "dig": 2826,
      "aproxim": 2827,
      "##ndido": 2828,
      "tempera": 2829,
      "##terna": 2830,
      "acesso": 2831,
      "##hia": 2832,
      "alte": 2833,
      "sucess": 2834,
      "mundial": 2835,
      "##ava": 2836,
      "urb": 2837,
      "ocorreu": 2838,
      "capacidade": 2839,
      "caval": 2840,
      "##ores": 2841,
      "adap": 2842,
      "Partido": 2843,
      "partes": 2844,
      "##ínci": 2845,
      "##telo": 2846,
      "altura": 2847,
      "##cal": 2848,
      "interna": 2849,
      "feita": 2850,
      "trabalhos": 2851,
      "##ílio": 2852,
      "##cent": 2853,
      "##izar": 2854,
      "##uz": 2855,
      "horas": 2856,
      "Prime": 2857,
      "##var": 2858,
      "elas": 2859,
      "##iais": 2860,
      "insta": 2861,
      "tornando": 2862,
      "procura": 2863,
      "##respo": 2864,
      "espécie": 2865,
      "deles": 2866,
      "hos": 2867,
      "##vista": 2868,
      "exce": 2869,
      "Mag": 2870,
      "Gal": 2871,
      "##jam": 2872,
      "remo": 2873,
      "estuda": 2874,
      "##ensão": 2875,
      "##ld": 2876,
      "ime": 2877,
      "##ispo": 2878,
      "##mentação": 2879,
      "ocas": 2880,
      "##ató": 2881,
      "##hes": 2882,
      "Í": 2883,
      "indic": 2884,
      "refere": 2885,
      "superior": 2886,
      "Cu": 2887,
      "abandon": 2888,
      "Centro": 2889,
      "##mea": 2890,
      "Rod": 2891,
      "menor": 2892,
      "##ites": 2893,
      "homena": 2894,
      "##hado": 2895,
      "##tima": 2896,
      "Bel": 2897,
      "próximo": 2898,
      "Unido": 2899,
      "Instituto": 2900,
      "##rilha": 2901,
      "##”,": 2902,
      "san": 2903,
      "##gou": 2904,
      "Jes": 2905,
      "##ético": 2906,
      "bairro": 2907,
      "##pendente": 2908,
      "Roc": 2909,
      "##ípios": 2910,
      "Pla": 2911,
      "##net": 2912,
      "Ir": 2913,
      "terceira": 2914,
      "Porém": 2915,
      "##tia": 2916,
      "professor": 2917,
      "mercado": 2918,
      "casos": 2919,
      "lá": 2920,
      "##sh": 2921,
      "flu": 2922,
      "juntamente": 2923,
      "##taram": 2924,
      "lista": 2925,
      "##tórios": 2926,
      "voltou": 2927,
      "##áticas": 2928,
      "Cruz": 2929,
      "extens": 2930,
      "morreu": 2931,
      "conclu": 2932,
      "minu": 2933,
      "vídeo": 2934,
      "##osos": 2935,
      "San": 2936,
      "Mat": 2937,
      "##inação": 2938,
      "29": 2939,
      "cantora": 2940,
      "retorn": 2941,
      "Enquanto": 2942,
      "crianças": 2943,
      "japon": 2944,
      "##arda": 2945,
      "ensino": 2946,
      "faixa": 2947,
      "confir": 2948,
      "##ini": 2949,
      "arti": 2950,
      "##icul": 2951,
      "187": 2952,
      "##ístico": 2953,
      "noite": 2954,
      "condições": 2955,
      "Ainda": 2956,
      "emisso": 2957,
      "single": 2958,
      "situação": 2959,
      "##ídu": 2960,
      "##inou": 2961,
      "tornar": 2962,
      "##fon": 2963,
      "##zer": 2964,
      "participou": 2965,
      "##isla": 2966,
      "Silva": 2967,
      "flores": 2968,
      "##jec": 2969,
      "##Es": 2970,
      "batalha": 2971,
      "regiões": 2972,
      "ação": 2973,
      "Esp": 2974,
      "##íncia": 2975,
      "torna": 2976,
      "adqu": 2977,
      "livros": 2978,
      "alto": 2979,
      "melhores": 2980,
      "presente": 2981,
      "casamento": 2982,
      "estes": 2983,
      "eventos": 2984,
      "##anças": 2985,
      "##ndendo": 2986,
      "ouro": 2987,
      "##ustra": 2988,
      "XX": 2989,
      "dessa": 2990,
      "começa": 2991,
      "ce": 2992,
      "##eza": 2993,
      "##ciado": 2994,
      "Santos": 2995,
      "fei": 2996,
      "acredita": 2997,
      "##III": 2998,
      "artistas": 2999,
      "You": 3000,
      "mante": 3001,
      "mal": 3002,
      "oito": 3003,
      "##rel": 3004,
      "##ivos": 3005,
      "estúdio": 3006,
      "divisão": 3007,
      "tropas": 3008,
      "reconhec": 3009,
      "cláss": 3010,
      "secre": 3011,
      "##adem": 3012,
      "correspo": 3013,
      "reduz": 3014,
      "direitos": 3015,
      "Sch": 3016,
      "Char": 3017,
      "##ash": 3018,
      "##ália": 3019,
      "Wal": 3020,
      "Sam": 3021,
      "transforma": 3022,
      "##éis": 3023,
      "estudo": 3024,
      "teoria": 3025,
      "confl": 3026,
      "##van": 3027,
      "material": 3028,
      "Vi": 3029,
      "fec": 3030,
      "contrato": 3031,
      "acus": 3032,
      "entrou": 3033,
      "plane": 3034,
      "estreia": 3035,
      "##cção": 3036,
      "solo": 3037,
      "conven": 3038,
      "livre": 3039,
      "Record": 3040,
      "ataque": 3041,
      "Escola": 3042,
      "x": 3043,
      "Glo": 3044,
      "ocupa": 3045,
      "convid": 3046,
      "perto": 3047,
      "##nco": 3048,
      "cabe": 3049,
      "ferro": 3050,
      "sobrev": 3051,
      "Casa": 3052,
      "presid": 3053,
      "##ko": 3054,
      "50": 3055,
      "mês": 3056,
      "##grafia": 3057,
      "prepara": 3058,
      "##éd": 3059,
      "Mor": 3060,
      "mis": 3061,
      "elim": 3062,
      "jogadores": 3063,
      "realizado": 3064,
      "francês": 3065,
      "##ple": 3066,
      "Mal": 3067,
      "##xima": 3068,
      "##todo": 3069,
      "##orda": 3070,
      "##ight": 3071,
      "dura": 3072,
      "##ky": 3073,
      "Há": 3074,
      "inclus": 3075,
      "combate": 3076,
      "características": 3077,
      "observ": 3078,
      "Ara": 3079,
      "blo": 3080,
      "canções": 3081,
      "##uras": 3082,
      "raz": 3083,
      "extra": 3084,
      "respec": 3085,
      "##lam": 3086,
      "decisão": 3087,
      "verd": 3088,
      "Alguns": 3089,
      "##ualmente": 3090,
      "turn": 3091,
      "perce": 3092,
      "##li": 3093,
      "equipa": 3094,
      "##bun": 3095,
      "minist": 3096,
      "pá": 3097,
      "semelha": 3098,
      "permite": 3099,
      "186": 3100,
      "Conselho": 3101,
      "neste": 3102,
      "##jos": 3103,
      "##ússia": 3104,
      "Asso": 3105,
      "atra": 3106,
      "##ticamente": 3107,
      "viol": 3108,
      "competição": 3109,
      "orient": 3110,
      "##mi": 3111,
      "canal": 3112,
      "pequena": 3113,
      "votos": 3114,
      "categoria": 3115,
      "##manas": 3116,
      "##íncipe": 3117,
      "comando": 3118,
      "##19": 3119,
      "##teiro": 3120,
      "Gover": 3121,
      "vista": 3122,
      "femin": 3123,
      "Sol": 3124,
      "Jesus": 3125,
      "ps": 3126,
      "anunciou": 3127,
      "permi": 3128,
      "##cima": 3129,
      "Lou": 3130,
      "cic": 3131,
      "##rique": 3132,
      "sen": 3133,
      "indús": 3134,
      "artista": 3135,
      "demons": 3136,
      "##usão": 3137,
      "ideia": 3138,
      "##vela": 3139,
      "Luís": 3140,
      "##bas": 3141,
      "##ércio": 3142,
      "##icais": 3143,
      "##ws": 3144,
      "terras": 3145,
      "##hora": 3146,
      "quarto": 3147,
      "##han": 3148,
      "obrig": 3149,
      "Tur": 3150,
      "##ood": 3151,
      "##elos": 3152,
      "depu": 3153,
      "civil": 3154,
      "animais": 3155,
      "europe": 3156,
      "##rol": 3157,
      "Sant": 3158,
      "Câmara": 3159,
      "estação": 3160,
      "líder": 3161,
      "garant": 3162,
      "Atualmente": 3163,
      "##ker": 3164,
      "amor": 3165,
      "criar": 3166,
      "comunidade": 3167,
      "##UA": 3168,
      "produtos": 3169,
      "process": 3170,
      "mudou": 3171,
      "inspira": 3172,
      "##len": 3173,
      "demo": 3174,
      "##enn": 3175,
      "campeão": 3176,
      "##manos": 3177,
      "##ical": 3178,
      "algum": 3179,
      "venceu": 3180,
      "##mbra": 3181,
      "lingu": 3182,
      "realizada": 3183,
      "sistemas": 3184,
      "on": 3185,
      "##idad": 3186,
      "colon": 3187,
      "concent": 3188,
      "quer": 3189,
      "2010": 3190,
      "armas": 3191,
      "##ref": 3192,
      "reconhe": 3193,
      "##ingu": 3194,
      "Hist": 3195,
      "chama": 3196,
      "Gru": 3197,
      "##rim": 3198,
      "31": 3199,
      "##icações": 3200,
      "divul": 3201,
      "exig": 3202,
      "##tureza": 3203,
      "plano": 3204,
      "##frica": 3205,
      "programas": 3206,
      "falta": 3207,
      "##éu": 3208,
      "##gus": 3209,
      "##col": 3210,
      "intit": 3211,
      "trabalhar": 3212,
      "Sim": 3213,
      "##risto": 3214,
      "##pital": 3215,
      "pesquisa": 3216,
      "Real": 3217,
      "militares": 3218,
      "US": 3219,
      "##ustiça": 3220,
      "ante": 3221,
      "Hu": 3222,
      "ocup": 3223,
      "Ind": 3224,
      "##ólo": 3225,
      "##rí": 3226,
      "##50": 3227,
      "iniciou": 3228,
      "import": 3229,
      "III": 3230,
      "saúde": 3231,
      "últimos": 3232,
      "algo": 3233,
      "Ban": 3234,
      "esco": 3235,
      "tema": 3236,
      "##ung": 3237,
      "##);": 3238,
      "##uta": 3239,
      "esca": 3240,
      "formas": 3241,
      "fá": 3242,
      "partido": 3243,
      "##dados": 3244,
      "##.,": 3245,
      "##cl": 3246,
      "manter": 3247,
      "visita": 3248,
      "##itada": 3249,
      "Londres": 3250,
      "##Re": 3251,
      "##fil": 3252,
      "obte": 3253,
      "estra": 3254,
      "##como": 3255,
      "trabalha": 3256,
      "Ori": 3257,
      "superf": 3258,
      "reno": 3259,
      "sens": 3260,
      "governador": 3261,
      "mem": 3262,
      "##ídas": 3263,
      "boa": 3264,
      "pequeno": 3265,
      "prática": 3266,
      "Mes": 3267,
      "Div": 3268,
      "##alidade": 3269,
      "mus": 3270,
      "cen": 3271,
      "Gar": 3272,
      "##aran": 3273,
      "##pidamente": 3274,
      "Vila": 3275,
      "retra": 3276,
      "rus": 3277,
      "China": 3278,
      "imperador": 3279,
      "aproximadamente": 3280,
      "##gada": 3281,
      "##vers": 3282,
      "fiz": 3283,
      "##liam": 3284,
      "met": 3285,
      "compara": 3286,
      "Dom": 3287,
      "sentido": 3288,
      "acei": 3289,
      "sociais": 3290,
      "##turo": 3291,
      "##encia": 3292,
      "criada": 3293,
      "imagem": 3294,
      "verdade": 3295,
      "York": 3296,
      "estreou": 3297,
      "##ôs": 3298,
      "classific": 3299,
      "veloc": 3300,
      "##bi": 3301,
      "entrada": 3302,
      "terminou": 3303,
      "Lib": 3304,
      "Dis": 3305,
      "dá": 3306,
      "##erg": 3307,
      "importância": 3308,
      "##ome": 3309,
      "Exército": 3310,
      "Essa": 3311,
      "tiveram": 3312,
      "##ífico": 3313,
      "##gão": 3314,
      "##iência": 3315,
      "interesse": 3316,
      "fronte": 3317,
      "##orias": 3318,
      "usa": 3319,
      "segurança": 3320,
      "escrita": 3321,
      "qualidade": 3322,
      "##rank": 3323,
      "##ndos": 3324,
      "oeste": 3325,
      "instal": 3326,
      "Mundo": 3327,
      "##ícia": 3328,
      "Bat": 3329,
      "ama": 3330,
      "inim": 3331,
      "##istou": 3332,
      "##tividade": 3333,
      "massa": 3334,
      "Segunda": 3335,
      "criou": 3336,
      "turnê": 3337,
      "economia": 3338,
      "profissional": 3339,
      "crescimento": 3340,
      "##ES": 3341,
      "##ímp": 3342,
      "sat": 3343,
      "busca": 3344,
      "##pendência": 3345,
      "Ros": 3346,
      "##iação": 3347,
      "Brasileiro": 3348,
      "Monte": 3349,
      "problema": 3350,
      "##ilar": 3351,
      "pública": 3352,
      "recursos": 3353,
      "minutos": 3354,
      "##lec": 3355,
      "##ot": 3356,
      "##uss": 3357,
      "África": 3358,
      "utilizado": 3359,
      "nomes": 3360,
      "vivo": 3361,
      "Era": 3362,
      "houve": 3363,
      "acima": 3364,
      "##quela": 3365,
      "Th": 3366,
      "##idental": 3367,
      "decidiu": 3368,
      "rapidamente": 3369,
      "fol": 3370,
      "Sec": 3371,
      "##edades": 3372,
      "facil": 3373,
      "imedia": 3374,
      "Dou": 3375,
      "general": 3376,
      "luz": 3377,
      "baixo": 3378,
      "aparece": 3379,
      "considerada": 3380,
      "liga": 3381,
      "visto": 3382,
      "classe": 3383,
      "escolh": 3384,
      "tipos": 3385,
      "permit": 3386,
      "extre": 3387,
      "##ree": 3388,
      "##ling": 3389,
      "vive": 3390,
      "##ac": 3391,
      "##ráfica": 3392,
      "Isso": 3393,
      "recus": 3394,
      "indivídu": 3395,
      "Eu": 3396,
      "alemão": 3397,
      "começaram": 3398,
      "Portugu": 3399,
      "domin": 3400,
      "termos": 3401,
      "natureza": 3402,
      "avanç": 3403,
      "financ": 3404,
      "cóp": 3405,
      "##”.": 3406,
      "usar": 3407,
      "##plos": 3408,
      "XIX": 3409,
      "distrito": 3410,
      "##isto": 3411,
      "Ana": 3412,
      "isto": 3413,
      "usando": 3414,
      "afirmou": 3415,
      "William": 3416,
      "manif": 3417,
      "curso": 3418,
      "Antônio": 3419,
      "caminho": 3420,
      "##ães": 3421,
      "mand": 3422,
      "##én": 3423,
      "inicialmente": 3424,
      "bil": 3425,
      "Fernando": 3426,
      "##ust": 3427,
      "hor": 3428,
      "veio": 3429,
      "##xico": 3430,
      "comu": 3431,
      "##geiros": 3432,
      "dado": 3433,
      "Jog": 3434,
      "zona": 3435,
      "jur": 3436,
      "metade": 3437,
      "##onel": 3438,
      "##my": 3439,
      "##ance": 3440,
      "##ífica": 3441,
      "quantidade": 3442,
      "torno": 3443,
      "amea": 3444,
      "dificul": 3445,
      "##lubes": 3446,
      "movi": 3447,
      "finalmente": 3448,
      "continuou": 3449,
      "Jack": 3450,
      "provo": 3451,
      "vence": 3452,
      "##vidos": 3453,
      "relações": 3454,
      "Tom": 3455,
      "arre": 3456,
      "refor": 3457,
      "##itora": 3458,
      "vig": 3459,
      "Bru": 3460,
      "reco": 3461,
      "Mer": 3462,
      "##culdade": 3463,
      "##trás": 3464,
      "Vic": 3465,
      "cruz": 3466,
      "40": 3467,
      "##ráfico": 3468,
      "anal": 3469,
      "2012": 3470,
      "##bos": 3471,
      "##ks": 3472,
      "##_1": 3473,
      "Minas": 3474,
      "dim": 3475,
      "informações": 3476,
      "recupera": 3477,
      "educação": 3478,
      "Geral": 3479,
      "nave": 3480,
      "emissora": 3481,
      "conhecimento": 3482,
      "guitar": 3483,
      "nenhum": 3484,
      "Music": 3485,
      "ente": 3486,
      "##orde": 3487,
      "##nam": 3488,
      "##itação": 3489,
      "Rede": 3490,
      "##titude": 3491,
      "tempos": 3492,
      "Constitu": 3493,
      "##old": 3494,
      "dinheiro": 3495,
      "eleições": 3496,
      "manda": 3497,
      "##issões": 3498,
      "incluem": 3499,
      "2008": 3500,
      "Rei": 3501,
      "##tad": 3502,
      "##anas": 3503,
      "##blic": 3504,
      "nar": 3505,
      "funções": 3506,
      "##itão": 3507,
      "aba": 3508,
      "mens": 3509,
      "##rom": 3510,
      "##esas": 3511,
      "índ": 3512,
      "introduz": 3513,
      "##amente": 3514,
      "teste": 3515,
      "Alexand": 3516,
      "##TV": 3517,
      "##íd": 3518,
      "forç": 3519,
      "##ish": 3520,
      "##ónio": 3521,
      "Mon": 3522,
      "##ológico": 3523,
      "descri": 3524,
      "gênero": 3525,
      "lançada": 3526,
      "etc": 3527,
      "quil": 3528,
      "##itou": 3529,
      "encontrar": 3530,
      "contr": 3531,
      "acompanh": 3532,
      "##ique": 3533,
      "##orld": 3534,
      "anál": 3535,
      "aumento": 3536,
      "cele": 3537,
      "esquer": 3538,
      "vem": 3539,
      "existência": 3540,
      "taman": 3541,
      "jovens": 3542,
      "##ície": 3543,
      "Dem": 3544,
      "estados": 3545,
      "atividade": 3546,
      "demais": 3547,
      "aval": 3548,
      "##NA": 3549,
      "aprov": 3550,
      "##rimento": 3551,
      "##lin": 3552,
      "portanto": 3553,
      "provavelmente": 3554,
      "##ím": 3555,
      "##imos": 3556,
      "atriz": 3557,
      "##amos": 3558,
      "Municipal": 3559,
      "rele": 3560,
      "cuja": 3561,
      "referência": 3562,
      "##tun": 3563,
      "Sete": 3564,
      "publicado": 3565,
      "independente": 3566,
      "##orme": 3567,
      "bal": 3568,
      "iria": 3569,
      "Clube": 3570,
      "##ianos": 3571,
      "existem": 3572,
      "defesa": 3573,
      "unidades": 3574,
      "diferente": 3575,
      "produto": 3576,
      "escolas": 3577,
      "hon": 3578,
      "pilo": 3579,
      "ambiente": 3580,
      "Entretanto": 3581,
      "descobri": 3582,
      "##cip": 3583,
      "diminu": 3584,
      "EUA": 3585,
      "província": 3586,
      "##tário": 3587,
      "deri": 3588,
      "David": 3589,
      "##forme": 3590,
      "edifício": 3591,
      "##/": 3592,
      "##vidas": 3593,
      "##íb": 3594,
      "administra": 3595,
      "cujo": 3596,
      "Brasileira": 3597,
      "gas": 3598,
      "##ncial": 3599,
      "##alo": 3600,
      "dó": 3601,
      "posi": 3602,
      "##radores": 3603,
      "aer": 3604,
      "ade": 3605,
      "propor": 3606,
      "##adá": 3607,
      "##timo": 3608,
      "##iblio": 3609,
      "James": 3610,
      "##ua": 3611,
      "##mentou": 3612,
      "##alha": 3613,
      "captura": 3614,
      "possuem": 3615,
      "Dia": 3616,
      "propriedade": 3617,
      "2011": 3618,
      "crítica": 3619,
      "ator": 3620,
      "##tus": 3621,
      "eletr": 3622,
      "disputa": 3623,
      "##tais": 3624,
      "missão": 3625,
      "##rama": 3626,
      "##estre": 3627,
      "##ânt": 3628,
      "##vios": 3629,
      "##ademia": 3630,
      "##tant": 3631,
      "##oa": 3632,
      "Nor": 3633,
      "##éia": 3634,
      "##idro": 3635,
      "esses": 3636,
      "linhas": 3637,
      "##unha": 3638,
      "longa": 3639,
      "##ted": 3640,
      "##ndem": 3641,
      "##uncia": 3642,
      "##lor": 3643,
      "usu": 3644,
      "fabr": 3645,
      "mudança": 3646,
      "##isões": 3647,
      "leste": 3648,
      "portuguesa": 3649,
      "padrão": 3650,
      "Jorge": 3651,
      "foto": 3652,
      "##posto": 3653,
      "##gamento": 3654,
      "rea": 3655,
      "##esc": 3656,
      "Martin": 3657,
      "lite": 3658,
      "medida": 3659,
      "nesta": 3660,
      "palavra": 3661,
      "Pos": 3662,
      "cél": 3663,
      "espor": 3664,
      "2009": 3665,
      "##bor": 3666,
      "amigos": 3667,
      "Gre": 3668,
      "Ph": 3669,
      "##igas": 3670,
      "##erto": 3671,
      "Costa": 3672,
      "az": 3673,
      "destaque": 3674,
      "##ndeira": 3675,
      "##óis": 3676,
      "##égio": 3677,
      "##ustrial": 3678,
      "##tida": 3679,
      "ações": 3680,
      "##onas": 3681,
      "##ânica": 3682,
      "circu": 3683,
      "##mando": 3684,
      "##Co": 3685,
      "esqu": 3686,
      "dou": 3687,
      "instala": 3688,
      "tes": 3689,
      "##igra": 3690,
      "##ológica": 3691,
      "185": 3692,
      "2007": 3693,
      "##mens": 3694,
      "amigo": 3695,
      "exclus": 3696,
      "aplic": 3697,
      "comporta": 3698,
      "##âme": 3699,
      "campeonato": 3700,
      "conceito": 3701,
      "equipes": 3702,
      "Neste": 3703,
      "atrás": 3704,
      "##bs": 3705,
      "##xas": 3706,
      "Oc": 3707,
      "##30": 3708,
      "rádio": 3709,
      "##ecer": 3710,
      "##vin": 3711,
      "Sha": 3712,
      "aspec": 3713,
      "passado": 3714,
      "Bas": 3715,
      "Vol": 3716,
      "##ington": 3717,
      "##vir": 3718,
      "ocorr": 3719,
      "##íram": 3720,
      "Globo": 3721,
      "Grupo": 3722,
      "##ans": 3723,
      "palavras": 3724,
      "americano": 3725,
      "econôm": 3726,
      "control": 3727,
      "##bunal": 3728,
      "##guesia": 3729,
      "##eram": 3730,
      "184": 3731,
      "##lares": 3732,
      "Futebol": 3733,
      "México": 3734,
      "Ordem": 3735,
      "##Al": 3736,
      "##emble": 3737,
      "usada": 3738,
      "##ndante": 3739,
      "##ony": 3740,
      "##ientes": 3741,
      "Rib": 3742,
      "carta": 3743,
      "##írito": 3744,
      "frequentemente": 3745,
      "go": 3746,
      "##ervação": 3747,
      "arm": 3748,
      "##berta": 3749,
      "##ure": 3750,
      "##ceria": 3751,
      "infer": 3752,
      "futuro": 3753,
      "interess": 3754,
      "difí": 3755,
      "##gen": 3756,
      "2013": 3757,
      "Esse": 3758,
      "Isa": 3759,
      "##tific": 3760,
      "bomb": 3761,
      "descon": 3762,
      "perdeu": 3763,
      "##rus": 3764,
      "semanas": 3765,
      "costu": 3766,
      "chegar": 3767,
      "##triz": 3768,
      "estas": 3769,
      "##izou": 3770,
      "Museu": 3771,
      "desempen": 3772,
      "humanos": 3773,
      "intens": 3774,
      "velocidade": 3775,
      "##Ca": 3776,
      "##tagon": 3777,
      "##ênio": 3778,
      "composta": 3779,
      "Presidente": 3780,
      "peças": 3781,
      "##deração": 3782,
      "##tio": 3783,
      "##taria": 3784,
      "inclui": 3785,
      "Manuel": 3786,
      "Rússia": 3787,
      "irmãos": 3788,
      "individ": 3789,
      "Award": 3790,
      "asse": 3791,
      "cató": 3792,
      "motor": 3793,
      "apresentou": 3794,
      "chefe": 3795,
      "Senhora": 3796,
      "##ivamente": 3797,
      "cultural": 3798,
      "Henrique": 3799,
      "##hael": 3800,
      "##imes": 3801,
      "Che": 3802,
      "esfor": 3803,
      "precisa": 3804,
      "Liga": 3805,
      "pote": 3806,
      "indústria": 3807,
      "viz": 3808,
      "##fic": 3809,
      "títulos": 3810,
      "contrário": 3811,
      "unidade": 3812,
      "acer": 3813,
      "orden": 3814,
      "engenh": 3815,
      "##nes": 3816,
      "Hol": 3817,
      "##venção": 3818,
      "invas": 3819,
      "##imentos": 3820,
      "Bill": 3821,
      "teatro": 3822,
      "tradicional": 3823,
      "##cend": 3824,
      "veí": 3825,
      "demonstra": 3826,
      "cabeça": 3827,
      "argu": 3828,
      "políticas": 3829,
      "soldados": 3830,
      "##cimentos": 3831,
      "##osas": 3832,
      "##izados": 3833,
      "site": 3834,
      "##ay": 3835,
      "diss": 3836,
      "entra": 3837,
      "##ificar": 3838,
      "##tável": 3839,
      "oficiais": 3840,
      "haviam": 3841,
      "comércio": 3842,
      "2014": 3843,
      "sufici": 3844,
      "antigos": 3845,
      "tamanho": 3846,
      "2006": 3847,
      "mol": 3848,
      "##assem": 3849,
      "gols": 3850,
      "esteve": 3851,
      "passar": 3852,
      "destin": 3853,
      "War": 3854,
      "atenção": 3855,
      "pertenc": 3856,
      "conquistou": 3857,
      "CD": 3858,
      "receber": 3859,
      "anteriores": 3860,
      "##ratura": 3861,
      "Mos": 3862,
      "##iqu": 3863,
      "Tal": 3864,
      "##gentina": 3865,
      "seguir": 3866,
      "essas": 3867,
      "mic": 3868,
      "baseado": 3869,
      "##end": 3870,
      "##veram": 3871,
      "transporte": 3872,
      "##rael": 3873,
      "nada": 3874,
      "##istem": 3875,
      "nesse": 3876,
      "##ous": 3877,
      "##tina": 3878,
      "Cla": 3879,
      "##ná": 3880,
      "##berg": 3881,
      "Está": 3882,
      "carro": 3883,
      "Er": 3884,
      "poucos": 3885,
      "##ival": 3886,
      "fala": 3887,
      "Gen": 3888,
      "traz": 3889,
      "Ministério": 3890,
      "passando": 3891,
      "##tle": 3892,
      "##ômica": 3893,
      "Rodri": 3894,
      "##gados": 3895,
      "tratamento": 3896,
      "##ue": 3897,
      "rep": 3898,
      "exa": 3899,
      "aux": 3900,
      "efeito": 3901,
      "homenagem": 3902,
      "abertura": 3903,
      "##iguel": 3904,
      "localizado": 3905,
      "##porto": 3906,
      "nego": 3907,
      "terre": 3908,
      "##pp": 3909,
      "##ferência": 3910,
      "Bla": 3911,
      "##ioc": 3912,
      "##ental": 3913,
      "dela": 3914,
      "##ides": 3915,
      "deco": 3916,
      "##eração": 3917,
      "administração": 3918,
      "183": 3919,
      "Pen": 3920,
      "devem": 3921,
      "gal": 3922,
      "Oliv": 3923,
      "##áb": 3924,
      "Fund": 3925,
      "estadual": 3926,
      "##iências": 3927,
      "Conc": 3928,
      "refle": 3929,
      "##erial": 3930,
      "oficialmente": 3931,
      "##unos": 3932,
      "alguma": 3933,
      "Ven": 3934,
      "necessário": 3935,
      "Festival": 3936,
      "##ílias": 3937,
      "Bal": 3938,
      "##orden": 3939,
      "##gica": 3940,
      "##édia": 3941,
      "##mon": 3942,
      "Comun": 3943,
      "fonte": 3944,
      "##ibliote": 3945,
      "marcou": 3946,
      "protes": 3947,
      "tradição": 3948,
      "inclusive": 3949,
      "Ce": 3950,
      "dando": 3951,
      "corte": 3952,
      "respeito": 3953,
      "trabalhou": 3954,
      "resultados": 3955,
      "Jogos": 3956,
      "encontram": 3957,
      "episódios": 3958,
      "##tró": 3959,
      "cre": 3960,
      "##yo": 3961,
      "##iança": 3962,
      "nenhuma": 3963,
      "##ast": 3964,
      "projetos": 3965,
      "Sp": 3966,
      "##orpo": 3967,
      "efe": 3968,
      "rock": 3969,
      "##BC": 3970,
      "protagon": 3971,
      "##mor": 3972,
      "trá": 3973,
      "ple": 3974,
      "meados": 3975,
      "##ól": 3976,
      "originalmente": 3977,
      "Men": 3978,
      "ris": 3979,
      "perf": 3980,
      "Gon": 3981,
      "##tional": 3982,
      "você": 3983,
      "##alização": 3984,
      "bat": 3985,
      "dólares": 3986,
      "ár": 3987,
      "precis": 3988,
      "respo": 3989,
      "visão": 3990,
      "tentativa": 3991,
      "##ude": 3992,
      "associ": 3993,
      "Del": 3994,
      "realizar": 3995,
      "sequência": 3996,
      "efeitos": 3997,
      "Até": 3998,
      "Liv": 3999,
      "histórias": 4000,
      "elenco": 4001,
      "##osofia": 4002,
      "Mont": 4003,
      "chin": 4004,
      "cidad": 4005,
      "inver": 4006,
      "##deu": 4007,
      "Ita": 4008,
      "##ogra": 4009,
      "pós": 4010,
      "opor": 4011,
      "pessoal": 4012,
      "##dades": 4013,
      "mão": 4014,
      "federal": 4015,
      "obteve": 4016,
      "Tr": 4017,
      "assu": 4018,
      "impre": 4019,
      "##melho": 4020,
      "clubes": 4021,
      "técnico": 4022,
      "deus": 4023,
      "repe": 4024,
      "prisão": 4025,
      "artes": 4026,
      "Miguel": 4027,
      "assumiu": 4028,
      "##ni": 4029,
      "##zz": 4030,
      "jul": 4031,
      "##partamento": 4032,
      "##ódigo": 4033,
      "World": 4034,
      "##ny": 4035,
      "viagem": 4036,
      "##ware": 4037,
      "##ônico": 4038,
      "Augus": 4039,
      "experiência": 4040,
      "pros": 4041,
      "avi": 4042,
      "políticos": 4043,
      "##gresso": 4044,
      "Central": 4045,
      "##FA": 4046,
      "pensa": 4047,
      "parece": 4048,
      "forne": 4049,
      "##ltra": 4050,
      "capaz": 4051,
      "##onal": 4052,
      "Tho": 4053,
      "texto": 4054,
      "Pu": 4055,
      "##vore": 4056,
      "##vações": 4057,
      "passaram": 4058,
      "Secre": 4059,
      "constante": 4060,
      "Amb": 4061,
      "bom": 4062,
      "corr": 4063,
      "negó": 4064,
      "182": 4065,
      "superfície": 4066,
      "companhia": 4067,
      "##itário": 4068,
      "estraté": 4069,
      "valores": 4070,
      "##dy": 4071,
      "ingles": 4072,
      "lic": 4073,
      "figura": 4074,
      "Anton": 4075,
      "derrota": 4076,
      "torneio": 4077,
      "dupla": 4078,
      "##tantes": 4079,
      "comunicação": 4080,
      "som": 4081,
      "##now": 4082,
      "##quim": 4083,
      "aplica": 4084,
      "Primeira": 4085,
      "##ator": 4086,
      "Los": 4087,
      "conhecidos": 4088,
      "##AS": 4089,
      "Gil": 4090,
      "normalmente": 4091,
      "infant": 4092,
      "##ku": 4093,
      "Nossa": 4094,
      "##hi": 4095,
      "necessidade": 4096,
      "Rich": 4097,
      "baixa": 4098,
      "temperatura": 4099,
      "deputado": 4100,
      "##tilh": 4101,
      "bol": 4102,
      "casas": 4103,
      "mencion": 4104,
      "Sta": 4105,
      "formato": 4106,
      "construído": 4107,
      "contemp": 4108,
      "##ére": 4109,
      "guer": 4110,
      "dizendo": 4111,
      "fizeram": 4112,
      "restaura": 4113,
      "Nesse": 4114,
      "análise": 4115,
      "##reia": 4116,
      "tel": 4117,
      "Abril": 4118,
      "##ges": 4119,
      "Cham": 4120,
      "seleção": 4121,
      "##õe": 4122,
      "Eg": 4123,
      "cópias": 4124,
      "prefeito": 4125,
      "trein": 4126,
      "bene": 4127,
      "distribuição": 4128,
      "elo": 4129,
      "regime": 4130,
      "histori": 4131,
      "##we": 4132,
      "abaixo": 4133,
      "mudanças": 4134,
      "##riamente": 4135,
      "empa": 4136,
      "fontes": 4137,
      "Canadá": 4138,
      "##áu": 4139,
      "Dr": 4140,
      "jo": 4141,
      "prêmio": 4142,
      "Maio": 4143,
      "distância": 4144,
      "razão": 4145,
      "##ilia": 4146,
      "chega": 4147,
      "Crist": 4148,
      "##op": 4149,
      "Pop": 4150,
      "Res": 4151,
      "Inte": 4152,
      "Michael": 4153,
      "fundada": 4154,
      "2015": 4155,
      "##turais": 4156,
      "##amo": 4157,
      "gradu": 4158,
      "consiste": 4159,
      "aerona": 4160,
      "##ixos": 4161,
      "questão": 4162,
      "hi": 4163,
      "##áticos": 4164,
      "proteg": 4165,
      "Jer": 4166,
      "nove": 4167,
      "elétr": 4168,
      "apareceu": 4169,
      "marido": 4170,
      "totalmente": 4171,
      "realizou": 4172,
      "fug": 4173,
      "pens": 4174,
      "##polita": 4175,
      "Austr": 4176,
      "permaneceu": 4177,
      "sabe": 4178,
      "classificação": 4179,
      "##As": 4180,
      "Calif": 4181,
      "Ke": 4182,
      "adul": 4183,
      "Cristo": 4184,
      "espanhol": 4185,
      "Pere": 4186,
      "cena": 4187,
      "diretamente": 4188,
      "ord": 4189,
      "Dist": 4190,
      "Jul": 4191,
      "Gerais": 4192,
      "Social": 4193,
      "##unda": 4194,
      "##cular": 4195,
      "preoc": 4196,
      "Governo": 4197,
      "##leo": 4198,
      "##vez": 4199,
      "##No": 4200,
      "##board": 4201,
      "Estu": 4202,
      "costa": 4203,
      "técnica": 4204,
      "informação": 4205,
      "disti": 4206,
      "podia": 4207,
      "Dez": 4208,
      "igual": 4209,
      "##ustria": 4210,
      "##enci": 4211,
      "##gando": 4212,
      "dispos": 4213,
      "produzido": 4214,
      "##gares": 4215,
      "Eng": 4216,
      "susp": 4217,
      "Estes": 4218,
      "faixas": 4219,
      "Direito": 4220,
      "##fra": 4221,
      "tit": 4222,
      "escritor": 4223,
      "Bor": 4224,
      "Antes": 4225,
      "casou": 4226,
      "sinal": 4227,
      "alunos": 4228,
      "famílias": 4229,
      "apos": 4230,
      "##illa": 4231,
      "express": 4232,
      "Outros": 4233,
      "##pia": 4234,
      "##idão": 4235,
      "2000": 4236,
      "Hel": 4237,
      "##mal": 4238,
      "##inta": 4239,
      "##orque": 4240,
      "Isto": 4241,
      "##inhas": 4242,
      "pressão": 4243,
      "We": 4244,
      "Americ": 4245,
      "eta": 4246,
      "Branc": 4247,
      "bio": 4248,
      "cantor": 4249,
      "##trou": 4250,
      "passagem": 4251,
      "prete": 4252,
      "Lat": 4253,
      "doença": 4254,
      "imagens": 4255,
      "ec": 4256,
      "##public": 4257,
      "2005": 4258,
      "##cialmente": 4259,
      "ger": 4260,
      "composto": 4261,
      "contin": 4262,
      "Contudo": 4263,
      "formado": 4264,
      "governa": 4265,
      "Vir": 4266,
      "disp": 4267,
      "##embleia": 4268,
      "Peter": 4269,
      "entrar": 4270,
      "diante": 4271,
      "oportun": 4272,
      "chu": 4273,
      "publicou": 4274,
      "##ono": 4275,
      "emp": 4276,
      "tecnologia": 4277,
      "##anhas": 4278,
      "manifesta": 4279,
      "Europe": 4280,
      "mãos": 4281,
      "##âncias": 4282,
      "##rest": 4283,
      "2016": 4284,
      "desapare": 4285,
      "pat": 4286,
      "Academia": 4287,
      "##çar": 4288,
      "Hor": 4289,
      "##tude": 4290,
      "mandato": 4291,
      "perc": 4292,
      "símb": 4293,
      "Camp": 4294,
      "núcle": 4295,
      "pequenas": 4296,
      "##ford": 4297,
      "##caram": 4298,
      "resposta": 4299,
      "##izant": 4300,
      "Novo": 4301,
      "produtor": 4302,
      "porta": 4303,
      "completamente": 4304,
      "agra": 4305,
      "##mentais": 4306,
      "##ntu": 4307,
      "compar": 4308,
      "respectivamente": 4309,
      "Associação": 4310,
      "Robert": 4311,
      "bre": 4312,
      "romance": 4313,
      "deixar": 4314,
      "##ones": 4315,
      "##leta": 4316,
      "suste": 4317,
      "##eix": 4318,
      "artigo": 4319,
      "peça": 4320,
      "##tino": 4321,
      "##mia": 4322,
      "##bras": 4323,
      "escrav": 4324,
      "##<": 4325,
      "hip": 4326,
      "semelhante": 4327,
      "contém": 4328,
      "Pat": 4329,
      "feitas": 4330,
      "entrevista": 4331,
      "bra": 4332,
      "##ânico": 4333,
      "##ies": 4334,
      "##ares": 4335,
      "dent": 4336,
      "conduz": 4337,
      "conteú": 4338,
      "Trans": 4339,
      "Índia": 4340,
      "Cer": 4341,
      "##itores": 4342,
      "dete": 4343,
      "temas": 4344,
      "##/2": 4345,
      "evid": 4346,
      "##tações": 4347,
      "explic": 4348,
      "##vador": 4349,
      "versões": 4350,
      "bi": 4351,
      "##essão": 4352,
      "críticas": 4353,
      "##iliar": 4354,
      "domínio": 4355,
      "regular": 4356,
      "conce": 4357,
      "##ânea": 4358,
      "aconteceu": 4359,
      "deveria": 4360,
      "##tuais": 4361,
      "##let": 4362,
      "perd": 4363,
      "acaba": 4364,
      "evitar": 4365,
      "fazem": 4366,
      "conflito": 4367,
      "##essem": 4368,
      "ampla": 4369,
      "participar": 4370,
      "Iorque": 4371,
      "vas": 4372,
      "##iou": 4373,
      "Bahia": 4374,
      "60": 4375,
      "colabo": 4376,
      "décadas": 4377,
      "##fera": 4378,
      "##rid": 4379,
      "localizada": 4380,
      "Cidade": 4381,
      "##ordeste": 4382,
      "##viética": 4383,
      "decla": 4384,
      "pequenos": 4385,
      "Bol": 4386,
      "##umo": 4387,
      "inten": 4388,
      "Argentina": 4389,
      "continua": 4390,
      "Cou": 4391,
      "Tro": 4392,
      "##buns": 4393,
      "nega": 4394,
      "cump": 4395,
      "##crito": 4396,
      "Bur": 4397,
      "##vão": 4398,
      "Im": 4399,
      "presentes": 4400,
      "Outubro": 4401,
      "##De": 4402,
      "##ings": 4403,
      "George": 4404,
      "paral": 4405,
      "Julho": 4406,
      "Pre": 4407,
      "##tua": 4408,
      "##ntado": 4409,
      "voz": 4410,
      "vila": 4411,
      "ficar": 4412,
      "##bres": 4413,
      "vocal": 4414,
      "afas": 4415,
      "inú": 4416,
      "##10": 4417,
      "##uros": 4418,
      "##hada": 4419,
      "reais": 4420,
      "##iki": 4421,
      "##Ar": 4422,
      "instituição": 4423,
      "Nov": 4424,
      "estrelas": 4425,
      "##its": 4426,
      "##gro": 4427,
      "nota": 4428,
      "hum": 4429,
      "Tre": 4430,
      "seguido": 4431,
      "##teu": 4432,
      "Ve": 4433,
      "encerra": 4434,
      "tiv": 4435,
      "cel": 4436,
      "metal": 4437,
      "desses": 4438,
      "navios": 4439,
      "Dar": 4440,
      "##estra": 4441,
      "alterna": 4442,
      "##tale": 4443,
      "##unid": 4444,
      "conden": 4445,
      "especi": 4446,
      "Seus": 4447,
      "fen": 4448,
      "navio": 4449,
      "cuid": 4450,
      "eleição": 4451,
      "adm": 4452,
      "##lim": 4453,
      "##iverso": 4454,
      "técnicas": 4455,
      "##bia": 4456,
      "obter": 4457,
      "IV": 4458,
      "##wood": 4459,
      "posto": 4460,
      "destes": 4461,
      "Austrália": 4462,
      "##âmb": 4463,
      "##imas": 4464,
      "prim": 4465,
      "##erson": 4466,
      "##eroporto": 4467,
      "saída": 4468,
      "Ama": 4469,
      "Pas": 4470,
      "imprensa": 4471,
      "séculos": 4472,
      "##way": 4473,
      "Bern": 4474,
      "imped": 4475,
      "histórico": 4476,
      "Gr": 4477,
      "usados": 4478,
      "legisla": 4479,
      "palácio": 4480,
      "humano": 4481,
      "repro": 4482,
      "##cy": 4483,
      "##pal": 4484,
      "cla": 4485,
      "coisas": 4486,
      "##Ma": 4487,
      "lugares": 4488,
      "confro": 4489,
      "difícil": 4490,
      "Tele": 4491,
      "declarou": 4492,
      "extrema": 4493,
      "incorpo": 4494,
      "parceria": 4495,
      "##port": 4496,
      "##tora": 4497,
      "Vit": 4498,
      "Logo": 4499,
      "paci": 4500,
      "pintura": 4501,
      "fru": 4502,
      "ajudar": 4503,
      "construída": 4504,
      "Devido": 4505,
      "manteve": 4506,
      "##ório": 4507,
      "##VD": 4508,
      "tex": 4509,
      "adicion": 4510,
      "Cató": 4511,
      "máqu": 4512,
      "deixando": 4513,
      "Setembro": 4514,
      "Guil": 4515,
      "cores": 4516,
      "comand": 4517,
      "##questra": 4518,
      "##ansão": 4519,
      "Catar": 4520,
      "##ivas": 4521,
      "polícia": 4522,
      "príncipe": 4523,
      "Paulista": 4524,
      "trop": 4525,
      "reino": 4526,
      "paz": 4527,
      "##istir": 4528,
      "##CA": 4529,
      "##tis": 4530,
      "rebel": 4531,
      "chegada": 4532,
      "##20": 4533,
      "Dec": 4534,
      "proib": 4535,
      "##uí": 4536,
      "persegu": 4537,
      "80": 4538,
      "operações": 4539,
      "internacionais": 4540,
      "##estões": 4541,
      "dirigido": 4542,
      "números": 4543,
      "depe": 4544,
      "##SP": 4545,
      "professo": 4546,
      "Papa": 4547,
      "Frank": 4548,
      "##mun": 4549,
      "##anhia": 4550,
      "tira": 4551,
      "##tudo": 4552,
      "Serra": 4553,
      "##iada": 4554,
      "Dra": 4555,
      "popula": 4556,
      "fis": 4557,
      "##«": 4558,
      "##ardim": 4559,
      "municípios": 4560,
      "madeira": 4561,
      "proposta": 4562,
      "##yer": 4563,
      "##ester": 4564,
      "embar": 4565,
      "daquele": 4566,
      "##aix": 4567,
      "freguesia": 4568,
      "cerim": 4569,
      "humana": 4570,
      "##eição": 4571,
      "setor": 4572,
      "esquerda": 4573,
      "geração": 4574,
      "velho": 4575,
      "desempenho": 4576,
      "comuns": 4577,
      "finais": 4578,
      "António": 4579,
      "detal": 4580,
      "taxa": 4581,
      "Trabal": 4582,
      "rod": 4583,
      "musicais": 4584,
      "modelos": 4585,
      "Faculdade": 4586,
      "expressão": 4587,
      "pers": 4588,
      "Oliveira": 4589,
      "programação": 4590,
      "2004": 4591,
      "pág": 4592,
      "intitulado": 4593,
      "brasileiros": 4594,
      "estrela": 4595,
      "##amp": 4596,
      "operação": 4597,
      "##íss": 4598,
      "Stu": 4599,
      "instituições": 4600,
      "##ismos": 4601,
      "##gin": 4602,
      "Tor": 4603,
      "##enses": 4604,
      "garo": 4605,
      "##ann": 4606,
      "##cidos": 4607,
      "glo": 4608,
      "##burgo": 4609,
      "##itais": 4610,
      "células": 4611,
      "##umin": 4612,
      "afe": 4613,
      "alcançou": 4614,
      "álbuns": 4615,
      "linguagem": 4616,
      "##uls": 4617,
      "Ko": 4618,
      "encar": 4619,
      "compree": 4620,
      "aproxima": 4621,
      "vide": 4622,
      "##tera": 4623,
      "ganha": 4624,
      "##icidade": 4625,
      "##ror": 4626,
      "cenas": 4627,
      "##órm": 4628,
      "Wh": 4629,
      "começo": 4630,
      "Rua": 4631,
      "##postas": 4632,
      "Records": 4633,
      "sobreviv": 4634,
      "##imb": 4635,
      "transpor": 4636,
      "composição": 4637,
      "##graf": 4638,
      "sin": 4639,
      "dizer": 4640,
      "fãs": 4641,
      "ataques": 4642,
      "##mu": 4643,
      "nacionais": 4644,
      "##ach": 4645,
      "tentou": 4646,
      "trata": 4647,
      "##ítulo": 4648,
      "##60": 4649,
      "Junho": 4650,
      "##tropolita": 4651,
      "expansão": 4652,
      "##emas": 4653,
      "dan": 4654,
      "vege": 4655,
      "processos": 4656,
      "realidade": 4657,
      "método": 4658,
      "planeta": 4659,
      "advo": 4660,
      "vil": 4661,
      "audi": 4662,
      "##cro": 4663,
      "ára": 4664,
      "Bre": 4665,
      "utilizada": 4666,
      "##ír": 4667,
      "cará": 4668,
      "próxima": 4669,
      "##baix": 4670,
      "Ferro": 4671,
      "casal": 4672,
      "Sem": 4673,
      "objetos": 4674,
      "ligação": 4675,
      "liberdade": 4676,
      "vest": 4677,
      "dor": 4678,
      "Star": 4679,
      "Comissão": 4680,
      "##istia": 4681,
      "mistura": 4682,
      "##ídia": 4683,
      "##onstru": 4684,
      "rainha": 4685,
      "transmit": 4686,
      "delas": 4687,
      "plata": 4688,
      "apresentação": 4689,
      "Pi": 4690,
      "##redo": 4691,
      "##deus": 4692,
      "italiano": 4693,
      "sejam": 4694,
      "memória": 4695,
      "gravação": 4696,
      "revol": 4697,
      "vinte": 4698,
      "Angeles": 4699,
      "britânico": 4700,
      "literatura": 4701,
      "##\";": 4702,
      "acad": 4703,
      "##americano": 4704,
      "extensão": 4705,
      "voltar": 4706,
      "fundo": 4707,
      "troca": 4708,
      "Var": 4709,
      "industrial": 4710,
      "##nores": 4711,
      "branco": 4712,
      "govern": 4713,
      "médico": 4714,
      "##yn": 4715,
      "Março": 4716,
      "seriam": 4717,
      "##itando": 4718,
      "contexto": 4719,
      "posse": 4720,
      "escala": 4721,
      "fronteira": 4722,
      "comprimento": 4723,
      "##rena": 4724,
      "Filho": 4725,
      "##urs": 4726,
      "níveis": 4727,
      "##ls": 4728,
      "ráp": 4729,
      "##5%": 4730,
      "##fonso": 4731,
      "recorde": 4732,
      "publicação": 4733,
      "Vo": 4734,
      "paul": 4735,
      "cursos": 4736,
      "consegue": 4737,
      "##ulada": 4738,
      "redes": 4739,
      "Novembro": 4740,
      "##rista": 4741,
      "Teatro": 4742,
      "##single": 4743,
      "##Sa": 4744,
      "resto": 4745,
      "comemo": 4746,
      "consider": 4747,
      "bás": 4748,
      "##ionalmente": 4749,
      "queria": 4750,
      "surgiu": 4751,
      "##ield": 4752,
      "Melhor": 4753,
      "próprios": 4754,
      "Fel": 4755,
      "dessas": 4756,
      "##usta": 4757,
      "poderes": 4758,
      "y": 4759,
      "##mann": 4760,
      "autores": 4761,
      "conforme": 4762,
      "fale": 4763,
      "impa": 4764,
      "##jar": 4765,
      "escrever": 4766,
      "sala": 4767,
      "rua": 4768,
      "##adeiro": 4769,
      "fas": 4770,
      "Eduardo": 4771,
      "Prin": 4772,
      "notí": 4773,
      "##érios": 4774,
      "anunciado": 4775,
      "##bat": 4776,
      "oposição": 4777,
      "vin": 4778,
      "matem": 4779,
      "resistência": 4780,
      "##deia": 4781,
      "Pan": 4782,
      "forn": 4783,
      "novela": 4784,
      "movimentos": 4785,
      "Militar": 4786,
      "produzir": 4787,
      "##La": 4788,
      "pergu": 4789,
      "##MA": 4790,
      "##lânt": 4791,
      "sé": 4792,
      "cru": 4793,
      "pedido": 4794,
      "Justiça": 4795,
      "Companhia": 4796,
      "especiais": 4797,
      "##isf": 4798,
      "Aqu": 4799,
      "##venida": 4800,
      "princípio": 4801,
      "##iás": 4802,
      "##zar": 4803,
      "religião": 4804,
      "Amaz": 4805,
      "Batalha": 4806,
      "morto": 4807,
      "sofreu": 4808,
      "##órnia": 4809,
      "física": 4810,
      "mascul": 4811,
      "##ivel": 4812,
      "convo": 4813,
      "partidas": 4814,
      "##izo": 4815,
      "sug": 4816,
      "##estru": 4817,
      "exter": 4818,
      "agric": 4819,
      "##izando": 4820,
      "ultra": 4821,
      "##3)": 4822,
      "Mesmo": 4823,
      "letras": 4824,
      "retornou": 4825,
      "bel": 4826,
      "estadunid": 4827,
      "famoso": 4828,
      "##gios": 4829,
      "##eitura": 4830,
      "##2)": 4831,
      "terem": 4832,
      "mín": 4833,
      "##iados": 4834,
      "diplo": 4835,
      "verão": 4836,
      "indica": 4837,
      "##ui": 4838,
      "##lama": 4839,
      "lat": 4840,
      "herd": 4841,
      "defini": 4842,
      "fundação": 4843,
      "Alegre": 4844,
      "médio": 4845,
      "Tribunal": 4846,
      "apresentado": 4847,
      "fogo": 4848,
      "apresentar": 4849,
      "##adura": 4850,
      "##cadas": 4851,
      "ment": 4852,
      "##ói": 4853,
      "##iblioteca": 4854,
      "Congresso": 4855,
      "indíg": 4856,
      "arma": 4857,
      "municipal": 4858,
      "Todos": 4859,
      "##ike": 4860,
      "##igna": 4861,
      "retorno": 4862,
      "certo": 4863,
      "bispo": 4864,
      "americana": 4865,
      "##enso": 4866,
      "queda": 4867,
      "Agosto": 4868,
      "dimens": 4869,
      "anteriormente": 4870,
      "francesa": 4871,
      "##rome": 4872,
      "##érea": 4873,
      "Ric": 4874,
      "##line": 4875,
      "digital": 4876,
      "simplesmente": 4877,
      "les": 4878,
      "##deres": 4879,
      "Luiz": 4880,
      "aument": 4881,
      "vão": 4882,
      "formar": 4883,
      "jornalista": 4884,
      "clima": 4885,
      "##isse": 4886,
      "rival": 4887,
      "menores": 4888,
      "##Se": 4889,
      "possibilidade": 4890,
      "##bes": 4891,
      "##érias": 4892,
      "baseada": 4893,
      "##guai": 4894,
      "shows": 4895,
      "Liber": 4896,
      "suced": 4897,
      "Rock": 4898,
      "trono": 4899,
      "naquele": 4900,
      "essen": 4901,
      "construir": 4902,
      "ambas": 4903,
      "##olis": 4904,
      "##ológicos": 4905,
      "adequ": 4906,
      "Jose": 4907,
      "Cada": 4908,
      "Marc": 4909,
      "independência": 4910,
      "Constant": 4911,
      "rej": 4912,
      "línguas": 4913,
      "conseguir": 4914,
      "levar": 4915,
      "Di": 4916,
      "conde": 4917,
      "materiais": 4918,
      "psic": 4919,
      "Roberto": 4920,
      "##=": 4921,
      "nessa": 4922,
      "Divisão": 4923,
      "plantas": 4924,
      "fundamental": 4925,
      "Jú": 4926,
      "##ressão": 4927,
      "pot": 4928,
      "magn": 4929,
      "adol": 4930,
      "candidato": 4931,
      "crise": 4932,
      "profissionais": 4933,
      "##40": 4934,
      "##mico": 4935,
      "alemães": 4936,
      "naturais": 4937,
      "contato": 4938,
      "festa": 4939,
      "gestão": 4940,
      "Califórnia": 4941,
      "Existem": 4942,
      "##alh": 4943,
      "DVD": 4944,
      "saber": 4945,
      "formada": 4946,
      "objeto": 4947,
      "##ingles": 4948,
      "ficando": 4949,
      "Pou": 4950,
      "quilôme": 4951,
      "Revolução": 4952,
      "País": 4953,
      "mortos": 4954,
      "impla": 4955,
      "levando": 4956,
      "Come": 4957,
      "Isabel": 4958,
      "##ye": 4959,
      "Série": 4960,
      "180": 4961,
      "##ision": 4962,
      "Nic": 4963,
      "criança": 4964,
      "##ídio": 4965,
      "portugueses": 4966,
      "##grejas": 4967,
      "compa": 4968,
      "Católica": 4969,
      "viu": 4970,
      "leis": 4971,
      "Olímp": 4972,
      "estádio": 4973,
      "suficiente": 4974,
      "tornaram": 4975,
      "Palácio": 4976,
      "##tória": 4977,
      "Vas": 4978,
      "##tidos": 4979,
      "##qü": 4980,
      "##âneo": 4981,
      "clara": 4982,
      "##5)": 4983,
      "##logia": 4984,
      "parla": 4985,
      "Prof": 4986,
      "Caval": 4987,
      "Prêmio": 4988,
      "##istão": 4989,
      "escolha": 4990,
      "ros": 4991,
      "Sele": 4992,
      "Civil": 4993,
      "Mul": 4994,
      "##cola": 4995,
      "propriet": 4996,
      "comportamento": 4997,
      "críticos": 4998,
      "##lva": 4999,
      "##ariam": 5000,
      "castelo": 5001,
      "181": 5002,
      "vê": 5003,
      "##nais": 5004,
      "meios": 5005,
      "ocasião": 5006,
      "contempor": 5007,
      "Assembleia": 5008,
      "manu": 5009,
      "coorden": 5010,
      "70": 5011,
      "opin": 5012,
      "##erta": 5013,
      "Dezembro": 5014,
      "conteúdo": 5015,
      "compositor": 5016,
      "##pole": 5017,
      "##1)": 5018,
      "Pereira": 5019,
      "indivíduos": 5020,
      "##nambu": 5021,
      "aqueles": 5022,
      "tu": 5023,
      "planos": 5024,
      "##volucion": 5025,
      "cober": 5026,
      "Inf": 5027,
      "pedra": 5028,
      "Educação": 5029,
      "Awards": 5030,
      "##pul": 5031,
      "grau": 5032,
      "Charles": 5033,
      "realmente": 5034,
      "reconhecimento": 5035,
      "camp": 5036,
      "reinado": 5037,
      "##ádio": 5038,
      "sof": 5039,
      "##itária": 5040,
      "##plas": 5041,
      "##vera": 5042,
      "Van": 5043,
      "quarta": 5044,
      "compon": 5045,
      "##ville": 5046,
      "500": 5047,
      "compu": 5048,
      "Alexandre": 5049,
      "Tec": 5050,
      "##éticos": 5051,
      "sangue": 5052,
      "Israel": 5053,
      "##ER": 5054,
      "adquiri": 5055,
      "publicada": 5056,
      "fazia": 5057,
      "##mem": 5058,
      "##íbl": 5059,
      "##çado": 5060,
      "condição": 5061,
      "juntos": 5062,
      "chegaram": 5063,
      "Guilher": 5064,
      "direita": 5065,
      "##comp": 5066,
      "##80": 5067,
      "##ponsa": 5068,
      "lemb": 5069,
      "multi": 5070,
      "##)": 5071,
      "Vale": 5072,
      "##rões": 5073,
      "Algumas": 5074,
      "##itoral": 5075,
      "ganhar": 5076,
      "propriedades": 5077,
      "pun": 5078,
      "topo": 5079,
      "regras": 5080,
      "populares": 5081,
      "##chos": 5082,
      "serviu": 5083,
      "sobretudo": 5084,
      "##âng": 5085,
      "##ópolis": 5086,
      "atuou": 5087,
      "emo": 5088,
      "reforma": 5089,
      "estudantes": 5090,
      "##Pa": 5091,
      "##ioso": 5092,
      "exped": 5093,
      "atingiu": 5094,
      "vál": 5095,
      "2017": 5096,
      "campos": 5097,
      "ilhas": 5098,
      "bandas": 5099,
      "questões": 5100,
      "fir": 5101,
      "##iocese": 5102,
      "acres": 5103,
      "###": 5104,
      "##cara": 5105,
      "##cund": 5106,
      "Final": 5107,
      "##Os": 5108,
      "Sí": 5109,
      "haver": 5110,
      "##inada": 5111,
      "perda": 5112,
      "encontrado": 5113,
      "Estad": 5114,
      "atuação": 5115,
      "##Ne": 5116,
      "##Mar": 5117,
      "##TA": 5118,
      "Salvador": 5119,
      "##ximo": 5120,
      "risco": 5121,
      "##mith": 5122,
      "redor": 5123,
      "Parque": 5124,
      "fortale": 5125,
      "Jean": 5126,
      "saiu": 5127,
      "intelig": 5128,
      "monar": 5129,
      "chamados": 5130,
      "##pt": 5131,
      "##cau": 5132,
      "vend": 5133,
      "parc": 5134,
      "##peração": 5135,
      "Daniel": 5136,
      "##iti": 5137,
      "##8)": 5138,
      "preso": 5139,
      "vendas": 5140,
      "fes": 5141,
      "Paraná": 5142,
      "##ológicas": 5143,
      "públicos": 5144,
      "##ctor": 5145,
      "##bilidades": 5146,
      "entretanto": 5147,
      "foss": 5148,
      "consum": 5149,
      "Richard": 5150,
      "apel": 5151,
      "jogar": 5152,
      "dentre": 5153,
      "##ndimento": 5154,
      "custo": 5155,
      "##age": 5156,
      "ficaram": 5157,
      "Cri": 5158,
      "feitos": 5159,
      "proce": 5160,
      "Ham": 5161,
      "##izadas": 5162,
      "catól": 5163,
      "Muitos": 5164,
      "##cipl": 5165,
      "##çul": 5166,
      "beb": 5167,
      "chegando": 5168,
      "exterior": 5169,
      "##ândia": 5170,
      "transmissão": 5171,
      "tentar": 5172,
      "Constituição": 5173,
      "##ônimo": 5174,
      "##ritos": 5175,
      "##FC": 5176,
      "tend": 5177,
      "suger": 5178,
      "##todos": 5179,
      "dada": 5180,
      "complexo": 5181,
      "desenvolver": 5182,
      "À": 5183,
      "vul": 5184,
      "sexual": 5185,
      "##4)": 5186,
      "##cula": 5187,
      "Fla": 5188,
      "Tu": 5189,
      "ambient": 5190,
      "imple": 5191,
      "formou": 5192,
      "Catarina": 5193,
      "##erem": 5194,
      "##ioca": 5195,
      "Dent": 5196,
      "sair": 5197,
      "##olos": 5198,
      "##não": 5199,
      "##pion": 5200,
      "comerciais": 5201,
      "Afonso": 5202,
      "##Le": 5203,
      "Fin": 5204,
      "aceita": 5205,
      "ciência": 5206,
      "ruas": 5207,
      "Af": 5208,
      "armaz": 5209,
      "##ics": 5210,
      "impress": 5211,
      "viver": 5212,
      "utilizados": 5213,
      "##fé": 5214,
      "##óf": 5215,
      "Democ": 5216,
      "secund": 5217,
      "##CO": 5218,
      "##yl": 5219,
      "nós": 5220,
      "##licação": 5221,
      "contou": 5222,
      "enorme": 5223,
      "##Ch": 5224,
      "realização": 5225,
      "Q": 5226,
      "antigas": 5227,
      "##ussão": 5228,
      "segue": 5229,
      "performa": 5230,
      "alu": 5231,
      "2003": 5232,
      "narra": 5233,
      "##IA": 5234,
      "tomou": 5235,
      "acidente": 5236,
      "patro": 5237,
      "##ther": 5238,
      "##téria": 5239,
      "trilha": 5240,
      "##ocl": 5241,
      "##unt": 5242,
      "Don": 5243,
      "absol": 5244,
      "##ificada": 5245,
      "capela": 5246,
      "Mich": 5247,
      "fortes": 5248,
      "conserv": 5249,
      "desenvolvido": 5250,
      "Art": 5251,
      "Cultura": 5252,
      "piloto": 5253,
      "##jou": 5254,
      "breve": 5255,
      "##7)": 5256,
      "##bit": 5257,
      "autoridades": 5258,
      "típ": 5259,
      "hom": 5260,
      "sag": 5261,
      "bizant": 5262,
      "Lima": 5263,
      "Nesta": 5264,
      "exposição": 5265,
      "cente": 5266,
      "toma": 5267,
      "Thomas": 5268,
      "parque": 5269,
      "##ímica": 5270,
      "##dora": 5271,
      "rom": 5272,
      "critic": 5273,
      "peso": 5274,
      "##gráfica": 5275,
      "sonora": 5276,
      "concorre": 5277,
      "comandante": 5278,
      "##igrantes": 5279,
      "pesquis": 5280,
      "Joa": 5281,
      "Ouro": 5282,
      "##riam": 5283,
      "nobre": 5284,
      "núcleo": 5285,
      "hidro": 5286,
      "Mara": 5287,
      "certa": 5288,
      "quilômetros": 5289,
      "nucle": 5290,
      "ato": 5291,
      "##entos": 5292,
      "Estra": 5293,
      "be": 5294,
      "fábr": 5295,
      "responsa": 5296,
      "romanos": 5297,
      "invasão": 5298,
      "passageiros": 5299,
      "imediatamente": 5300,
      "##cher": 5301,
      "ren": 5302,
      "Sociedade": 5303,
      "venda": 5304,
      "consul": 5305,
      "Guilherme": 5306,
      "ciclo": 5307,
      "deixa": 5308,
      "pé": 5309,
      "Of": 5310,
      "##wer": 5311,
      "##tero": 5312,
      "late": 5313,
      "hora": 5314,
      "Estas": 5315,
      "##ftware": 5316,
      "povos": 5317,
      "gravadora": 5318,
      "##ban": 5319,
      "Han": 5320,
      "##tinho": 5321,
      "capitão": 5322,
      "potencial": 5323,
      "##envol": 5324,
      "##eliz": 5325,
      "##rinhos": 5326,
      "fossem": 5327,
      "##naval": 5328,
      "deslo": 5329,
      "científica": 5330,
      "##urg": 5331,
      "Miss": 5332,
      "déci": 5333,
      "cho": 5334,
      "líderes": 5335,
      "##ibus": 5336,
      "Arqu": 5337,
      "Tar": 5338,
      "##ólogo": 5339,
      "palco": 5340,
      "águas": 5341,
      "##_2": 5342,
      "Constantino": 5343,
      "##ces": 5344,
      "##rup": 5345,
      "90": 5346,
      "##encial": 5347,
      "relativamente": 5348,
      "XVIII": 5349,
      "##yd": 5350,
      "cab": 5351,
      "acess": 5352,
      "utilização": 5353,
      "Leg": 5354,
      "##americana": 5355,
      "natal": 5356,
      "tomar": 5357,
      "##6)": 5358,
      "trou": 5359,
      "Portuguesa": 5360,
      "##Americ": 5361,
      "evolução": 5362,
      "##xic": 5363,
      "Pad": 5364,
      "ideias": 5365,
      "##ivelmente": 5366,
      "##ecução": 5367,
      "##ciações": 5368,
      "desconhec": 5369,
      "aberto": 5370,
      "##cont": 5371,
      "Club": 5372,
      "substituído": 5373,
      "PS": 5374,
      "Poss": 5375,
      "##istente": 5376,
      "recebido": 5377,
      "Leon": 5378,
      "envia": 5379,
      "normal": 5380,
      "ress": 5381,
      "aus": 5382,
      "Enc": 5383,
      "volume": 5384,
      "##ath": 5385,
      "Rob": 5386,
      "##ecido": 5387,
      "graças": 5388,
      "Públ": 5389,
      "Disney": 5390,
      "cenário": 5391,
      "##xos": 5392,
      "##gações": 5393,
      "Outro": 5394,
      "consequ": 5395,
      "Bon": 5396,
      "mesmos": 5397,
      "disposi": 5398,
      "exti": 5399,
      "##cão": 5400,
      "vira": 5401,
      "variedade": 5402,
      "##ógica": 5403,
      "estrang": 5404,
      "Soviética": 5405,
      "tradicionais": 5406,
      "2002": 5407,
      "prol": 5408,
      "treinador": 5409,
      "##BA": 5410,
      "consol": 5411,
      "##itz": 5412,
      "simb": 5413,
      "moderna": 5414,
      "mú": 5415,
      "diferença": 5416,
      "Pes": 5417,
      "Foram": 5418,
      "##istema": 5419,
      "crimin": 5420,
      "##ácia": 5421,
      "filosofia": 5422,
      "##ji": 5423,
      "##usa": 5424,
      "recém": 5425,
      "Posteriormente": 5426,
      "VI": 5427,
      "Egito": 5428,
      "avent": 5429,
      "aspectos": 5430,
      "##-0": 5431,
      "##istiu": 5432,
      "##órmula": 5433,
      "##çou": 5434,
      "##ister": 5435,
      "meta": 5436,
      "liderança": 5437,
      "##hã": 5438,
      "expa": 5439,
      "sente": 5440,
      "ministro": 5441,
      "liter": 5442,
      "completa": 5443,
      "inferior": 5444,
      "##ínas": 5445,
      "Arm": 5446,
      "##óveis": 5447,
      "Seleção": 5448,
      "públicas": 5449,
      "ang": 5450,
      "Plan": 5451,
      "desaf": 5452,
      "Cel": 5453,
      "advers": 5454,
      "judeus": 5455,
      "##iso": 5456,
      "porto": 5457,
      "##vou": 5458,
      "territórios": 5459,
      "econômica": 5460,
      "##irou": 5461,
      "##ografia": 5462,
      "Castelo": 5463,
      "apresentam": 5464,
      "elabo": 5465,
      "Black": 5466,
      "##ashington": 5467,
      "dista": 5468,
      "predo": 5469,
      "Distrito": 5470,
      "##tain": 5471,
      "Ásia": 5472,
      "Tour": 5473,
      "##alto": 5474,
      "##DB": 5475,
      "##EC": 5476,
      "##ife": 5477,
      "##idor": 5478,
      "Hos": 5479,
      "encontro": 5480,
      "arquitetura": 5481,
      "Let": 5482,
      "Vitória": 5483,
      "##ceb": 5484,
      "##dica": 5485,
      "bandeira": 5486,
      "Mac": 5487,
      "vale": 5488,
      "discu": 5489,
      "escal": 5490,
      "possuía": 5491,
      "numer": 5492,
      "Wa": 5493,
      "My": 5494,
      "prima": 5495,
      "Cara": 5496,
      "sexo": 5497,
      "solução": 5498,
      "História": 5499,
      "execução": 5500,
      "definição": 5501,
      "Inc": 5502,
      "Ciências": 5503,
      "##presidente": 5504,
      "##valho": 5505,
      "proteção": 5506,
      "##ore": 5507,
      "##peão": 5508,
      "##âmica": 5509,
      "desf": 5510,
      "##timas": 5511,
      "arque": 5512,
      "Mach": 5513,
      "##vadas": 5514,
      "desenvolveu": 5515,
      "aborda": 5516,
      "veículos": 5517,
      "estruturas": 5518,
      "##vados": 5519,
      "##eros": 5520,
      "observa": 5521,
      "conced": 5522,
      "Antonio": 5523,
      "abran": 5524,
      "equival": 5525,
      "escolhido": 5526,
      "encontrados": 5527,
      "Mou": 5528,
      "##letas": 5529,
      "cima": 5530,
      "benef": 5531,
      "golpe": 5532,
      "longe": 5533,
      "##êmios": 5534,
      "juríd": 5535,
      "Sco": 5536,
      "desenho": 5537,
      "possibil": 5538,
      "##úr": 5539,
      "planta": 5540,
      "identidade": 5541,
      "tér": 5542,
      "##isp": 5543,
      "##marca": 5544,
      "estil": 5545,
      "far": 5546,
      "##bio": 5547,
      "##isc": 5548,
      "##hares": 5549,
      "reto": 5550,
      "Christ": 5551,
      "código": 5552,
      "coro": 5553,
      "##70": 5554,
      "encontrou": 5555,
      "Loc": 5556,
      "voo": 5557,
      "similar": 5558,
      "Estadual": 5559,
      "duração": 5560,
      "35": 5561,
      "pap": 5562,
      "##pressão": 5563,
      "coment": 5564,
      "vant": 5565,
      "afric": 5566,
      "##uto": 5567,
      "2001": 5568,
      "praticamente": 5569,
      "acadêm": 5570,
      "caráter": 5571,
      "conv": 5572,
      "##utador": 5573,
      "Região": 5574,
      "grego": 5575,
      "decorre": 5576,
      "realizadas": 5577,
      "##vais": 5578,
      "mec": 5579,
      "azul": 5580,
      "Fundação": 5581,
      "Sér": 5582,
      "jus": 5583,
      "pesquisas": 5584,
      "##pass": 5585,
      "##ísticos": 5586,
      "##uso": 5587,
      "##tone": 5588,
      "Kar": 5589,
      "documentos": 5590,
      "##PS": 5591,
      "##tador": 5592,
      "##mano": 5593,
      "consci": 5594,
      "##icialmente": 5595,
      "edições": 5596,
      "violência": 5597,
      "##tern": 5598,
      "##ésar": 5599,
      "Fam": 5600,
      "##jor": 5601,
      "Red": 5602,
      "dens": 5603,
      "traduz": 5604,
      "##9)": 5605,
      "Az": 5606,
      "motivo": 5607,
      "chamou": 5608,
      "selecion": 5609,
      "descoberta": 5610,
      "Cul": 5611,
      "particularmente": 5612,
      "Desta": 5613,
      "Def": 5614,
      "179": 5615,
      "##nowiki": 5616,
      "edifícios": 5617,
      "City": 5618,
      "Love": 5619,
      "rios": 5620,
      "titular": 5621,
      "aplicação": 5622,
      "##Eu": 5623,
      "Cle": 5624,
      "Estre": 5625,
      "trouxe": 5626,
      "hospital": 5627,
      "poderiam": 5628,
      "característica": 5629,
      "##rava": 5630,
      "Gol": 5631,
      "Scho": 5632,
      "residência": 5633,
      "quadro": 5634,
      "##cor": 5635,
      "##arte": 5636,
      "faze": 5637,
      "Então": 5638,
      "templo": 5639,
      "Ferreira": 5640,
      "considerados": 5641,
      "Rádio": 5642,
      "ferra": 5643,
      "##tein": 5644,
      "Far": 5645,
      "arran": 5646,
      "escul": 5647,
      "colocação": 5648,
      "gravado": 5649,
      "##RA": 5650,
      "termina": 5651,
      "##unes": 5652,
      "org": 5653,
      "##inados": 5654,
      "Flo": 5655,
      "disponível": 5656,
      "ur": 5657,
      "Rus": 5658,
      "monu": 5659,
      "assinou": 5660,
      "document": 5661,
      "atuais": 5662,
      "museu": 5663,
      "coisa": 5664,
      "etapa": 5665,
      "Atlânt": 5666,
      "culturais": 5667,
      "XVI": 5668,
      "mídia": 5669,
      "assina": 5670,
      "Colégio": 5671,
      "Suas": 5672,
      "Corpo": 5673,
      "prefer": 5674,
      "estrada": 5675,
      "posições": 5676,
      "Washington": 5677,
      "frequência": 5678,
      "##sex": 5679,
      "##quis": 5680,
      "artilh": 5681,
      "Augusto": 5682,
      "aumentar": 5683,
      "trabalhadores": 5684,
      "Ger": 5685,
      "mestre": 5686,
      "tratado": 5687,
      "recentemente": 5688,
      "##chi": 5689,
      "##enças": 5690,
      "dança": 5691,
      "finan": 5692,
      "ves": 5693,
      "Artes": 5694,
      "pediu": 5695,
      "elemento": 5696,
      "categorias": 5697,
      "mudar": 5698,
      "treina": 5699,
      "conclus": 5700,
      "Fevereiro": 5701,
      "dro": 5702,
      "Sara": 5703,
      "Campo": 5704,
      "Dois": 5705,
      "##estrutura": 5706,
      "promover": 5707,
      "olhos": 5708,
      "franceses": 5709,
      "terá": 5710,
      "muçul": 5711,
      "fundador": 5712,
      "##kin": 5713,
      "##formou": 5714,
      "##ênd": 5715,
      "Va": 5716,
      "exibido": 5717,
      "estações": 5718,
      "estadunidense": 5719,
      "##hn": 5720,
      "gás": 5721,
      "adquir": 5722,
      "##tava": 5723,
      "Que": 5724,
      "recome": 5725,
      "audiência": 5726,
      "colocado": 5727,
      "corrida": 5728,
      "ocidental": 5729,
      "##íficos": 5730,
      "prata": 5731,
      "##gãos": 5732,
      "irá": 5733,
      "equipamentos": 5734,
      "podendo": 5735,
      "Gom": 5736,
      "1990": 5737,
      "vitórias": 5738,
      "sedi": 5739,
      "Conde": 5740,
      "transform": 5741,
      "##ónia": 5742,
      "coleção": 5743,
      "##ína": 5744,
      "Lar": 5745,
      "mecan": 5746,
      "muita": 5747,
      "sam": 5748,
      "##hat": 5749,
      "din": 5750,
      "negócios": 5751,
      "##12": 5752,
      "##çada": 5753,
      "Castro": 5754,
      "ingress": 5755,
      "próprias": 5756,
      "reconstru": 5757,
      "Vel": 5758,
      "den": 5759,
      "##itados": 5760,
      "##inastia": 5761,
      "extremamente": 5762,
      "media": 5763,
      "trás": 5764,
      "infância": 5765,
      "usuários": 5766,
      "instrumentos": 5767,
      "micro": 5768,
      "FI": 5769,
      "romano": 5770,
      "infra": 5771,
      "medidas": 5772,
      "altitude": 5773,
      "nascimento": 5774,
      "prem": 5775,
      "supera": 5776,
      "britânica": 5777,
      "Espe": 5778,
      "##ket": 5779,
      "adic": 5780,
      "dificuldades": 5781,
      "bru": 5782,
      "atingir": 5783,
      "textos": 5784,
      "produzida": 5785,
      "fenôme": 5786,
      "talvez": 5787,
      "##órico": 5788,
      "César": 5789,
      "ques": 5790,
      "espiri": 5791,
      "ponte": 5792,
      "seguiu": 5793,
      "revelou": 5794,
      "investigação": 5795,
      "relacionamento": 5796,
      "##-3": 5797,
      "West": 5798,
      "##idar": 5799,
      "ocupação": 5800,
      "##íam": 5801,
      "Outra": 5802,
      "facto": 5803,
      "vencer": 5804,
      "descend": 5805,
      "permitiu": 5806,
      "##pest": 5807,
      "invad": 5808,
      "destas": 5809,
      "igrejas": 5810,
      "preocupa": 5811,
      "originais": 5812,
      "inscri": 5813,
      "##Ra": 5814,
      "Pl": 5815,
      "St": 5816,
      "anual": 5817,
      "bater": 5818,
      "##ônicos": 5819,
      "corrente": 5820,
      "representação": 5821,
      "##ilha": 5822,
      "##ium": 5823,
      "atmos": 5824,
      "guarda": 5825,
      "concurso": 5826,
      "##êx": 5827,
      "##ênt": 5828,
      "##bela": 5829,
      "cem": 5830,
      "destino": 5831,
      "Smith": 5832,
      "Blo": 5833,
      "projec": 5834,
      "##emos": 5835,
      "mad": 5836,
      "fundado": 5837,
      "Econ": 5838,
      "##ificados": 5839,
      "celeb": 5840,
      "quinto": 5841,
      "Natal": 5842,
      "##tron": 5843,
      "paulista": 5844,
      "André": 5845,
      "crime": 5846,
      "##toria": 5847,
      "papa": 5848,
      "trip": 5849,
      "Clar": 5850,
      "##jado": 5851,
      "autoridade": 5852,
      "Sin": 5853,
      "##récia": 5854,
      "ataca": 5855,
      "terreno": 5856,
      "Três": 5857,
      "Corre": 5858,
      "fatores": 5859,
      "intenção": 5860,
      "Nações": 5861,
      "Administ": 5862,
      "aqui": 5863,
      "##ronze": 5864,
      "Mira": 5865,
      "drama": 5866,
      "apaix": 5867,
      "métodos": 5868,
      "##PA": 5869,
      "##mba": 5870,
      "##ires": 5871,
      "##lado": 5872,
      "destaca": 5873,
      "ras": 5874,
      "32": 5875,
      "##ardas": 5876,
      "von": 5877,
      "Ilha": 5878,
      "##ótes": 5879,
      "Organ": 5880,
      "satél": 5881,
      "máximo": 5882,
      "##mática": 5883,
      "Ferna": 5884,
      "clássico": 5885,
      "merc": 5886,
      "Arte": 5887,
      "assegu": 5888,
      "prédio": 5889,
      "carga": 5890,
      "Pernambu": 5891,
      "concelho": 5892,
      "europeus": 5893,
      "##ht": 5894,
      "##undo": 5895,
      "muda": 5896,
      "computador": 5897,
      "##ízes": 5898,
      "meia": 5899,
      "tenham": 5900,
      "##rés": 5901,
      "tom": 5902,
      "##SA": 5903,
      "##ntam": 5904,
      "vencedor": 5905,
      "derrotado": 5906,
      "verdadeira": 5907,
      "Cro": 5908,
      "##éries": 5909,
      "##metros": 5910,
      "brin": 5911,
      "econômico": 5912,
      "ajud": 5913,
      "Sebas": 5914,
      "efici": 5915,
      "profund": 5916,
      "Champion": 5917,
      "cristãos": 5918,
      "##iago": 5919,
      "Gonç": 5920,
      "tropical": 5921,
      "##cep": 5922,
      "mag": 5923,
      "expor": 5924,
      "ensa": 5925,
      "vaga": 5926,
      "símbolo": 5927,
      "organizações": 5928,
      "##tâncias": 5929,
      "princípios": 5930,
      "estabeleceu": 5931,
      "preju": 5932,
      "descobre": 5933,
      "##teis": 5934,
      "Cir": 5935,
      "religiosa": 5936,
      "##éria": 5937,
      "integrantes": 5938,
      "coração": 5939,
      "oportunidade": 5940,
      "rápido": 5941,
      "matéria": 5942,
      "funcionários": 5943,
      "##úsica": 5944,
      "percebe": 5945,
      "Freder": 5946,
      "Hall": 5947,
      "estima": 5948,
      "##chas": 5949,
      "Gomes": 5950,
      "evolu": 5951,
      "sovi": 5952,
      "supor": 5953,
      "##hal": 5954,
      "carre": 5955,
      "agricultura": 5956,
      "##leiro": 5957,
      "artigos": 5958,
      "Desenvol": 5959,
      "##rosso": 5960,
      "falar": 5961,
      "Superior": 5962,
      "gere": 5963,
      "estudar": 5964,
      "##ct": 5965,
      "conhecidas": 5966,
      "##gor": 5967,
      "##ônibus": 5968,
      "figuras": 5969,
      "##Ba": 5970,
      "gosta": 5971,
      "invés": 5972,
      "rel": 5973,
      "##ntando": 5974,
      "intelec": 5975,
      "escravos": 5976,
      "Za": 5977,
      "utiliza": 5978,
      "Air": 5979,
      "suj": 5980,
      "rodo": 5981,
      "torre": 5982,
      "##íba": 5983,
      "##bus": 5984,
      "Departamento": 5985,
      "perder": 5986,
      "##</": 5987,
      "##lex": 5988,
      "Romano": 5989,
      "##ificou": 5990,
      "letra": 5991,
      "##tiram": 5992,
      "##erar": 5993,
      "propa": 5994,
      "pul": 5995,
      "fins": 5996,
      "concord": 5997,
      "disputou": 5998,
      "inimigos": 5999,
      "estudou": 6000,
      "##grou": 6001,
      "Die": 6002,
      "curta": 6003,
      "##minante": 6004,
      "pertence": 6005,
      "Nu": 6006,
      "Saúde": 6007,
      "equil": 6008,
      "compra": 6009,
      "cro": 6010,
      "pratic": 6011,
      "Ep": 6012,
      "1980": 6013,
      "Barb": 6014,
      "anim": 6015,
      "Marinha": 6016,
      "##nci": 6017,
      "##écia": 6018,
      "Interna": 6019,
      "utilizando": 6020,
      "##hu": 6021,
      "possa": 6022,
      "Net": 6023,
      "##BT": 6024,
      "Lee": 6025,
      "impacto": 6026,
      "medalha": 6027,
      "continuar": 6028,
      "Hoje": 6029,
      "mito": 6030,
      "##roso": 6031,
      "animal": 6032,
      "contudo": 6033,
      "##ien": 6034,
      "rodada": 6035,
      "##lad": 6036,
      "Alberto": 6037,
      "Chris": 6038,
      "acum": 6039,
      "##olf": 6040,
      "agrí": 6041,
      "##çamento": 6042,
      "fundou": 6043,
      "##iosa": 6044,
      "Max": 6045,
      "Joaquim": 6046,
      "##tedral": 6047,
      "conquist": 6048,
      "##Na": 6049,
      "##ivis": 6050,
      "1999": 6051,
      "##inato": 6052,
      "##culas": 6053,
      "claro": 6054,
      "Britân": 6055,
      "Sob": 6056,
      "##:": 6057,
      "##ontade": 6058,
      "General": 6059,
      "##tte": 6060,
      "Play": 6061,
      "princesa": 6062,
      "comunidades": 6063,
      "##icina": 6064,
      "Inde": 6065,
      "##élio": 6066,
      "Ram": 6067,
      "tale": 6068,
      "##elh": 6069,
      "##rer": 6070,
      "Rodrigues": 6071,
      "##OS": 6072,
      "1970": 6073,
      "matar": 6074,
      "mostrou": 6075,
      "##pendentes": 6076,
      "fix": 6077,
      "##úm": 6078,
      "Carol": 6079,
      "Sar": 6080,
      "Show": 6081,
      "acompanha": 6082,
      "determinado": 6083,
      "enviou": 6084,
      "reunião": 6085,
      "aquele": 6086,
      "##ouse": 6087,
      "Phil": 6088,
      "frota": 6089,
      "Grécia": 6090,
      "##Lo": 6091,
      "Campos": 6092,
      "vio": 6093,
      "anuncia": 6094,
      "mantém": 6095,
      "Ala": 6096,
      "##idência": 6097,
      "ferrovi": 6098,
      "##deste": 6099,
      "##tanha": 6100,
      "Banco": 6101,
      "seres": 6102,
      "viria": 6103,
      "completo": 6104,
      "reserva": 6105,
      "##âm": 6106,
      "ordens": 6107,
      "##íns": 6108,
      "bens": 6109,
      "##ilares": 6110,
      "Carvalho": 6111,
      "temporadas": 6112,
      "Rog": 6113,
      "Blu": 6114,
      "##landa": 6115,
      "##izonte": 6116,
      "reper": 6117,
      "gan": 6118,
      "ilustra": 6119,
      "##Do": 6120,
      "##tz": 6121,
      "Uru": 6122,
      "##dições": 6123,
      "jan": 6124,
      "##táveis": 6125,
      "Outras": 6126,
      "##TP": 6127,
      "soci": 6128,
      "Bul": 6129,
      "nor": 6130,
      "##ficamente": 6131,
      "isol": 6132,
      "Enter": 6133,
      "doutr": 6134,
      "participantes": 6135,
      "doze": 6136,
      "##fos": 6137,
      "##teriores": 6138,
      "associação": 6139,
      "ajudou": 6140,
      "##pop": 6141,
      "prêmios": 6142,
      "Cur": 6143,
      "derrotou": 6144,
      "##lândia": 6145,
      "##culação": 6146,
      "enviado": 6147,
      "##aste": 6148,
      "verdadeiro": 6149,
      "Sousa": 6150,
      "quinta": 6151,
      "##eda": 6152,
      "jor": 6153,
      "Áustria": 6154,
      "existentes": 6155,
      "##ania": 6156,
      "Alme": 6157,
      "oferece": 6158,
      "##gico": 6159,
      "Pic": 6160,
      "consecu": 6161,
      "##IC": 6162,
      "Fal": 6163,
      "##ustralia": 6164,
      "##itch": 6165,
      "##ênia": 6166,
      "##ínsula": 6167,
      "King": 6168,
      "aposent": 6169,
      "##ndado": 6170,
      "milhares": 6171,
      "##ters": 6172,
      "oita": 6173,
      "##tância": 6174,
      "centros": 6175,
      "disponíveis": 6176,
      "imperial": 6177,
      "Jun": 6178,
      "assumir": 6179,
      "Dias": 6180,
      "##itu": 6181,
      "Rad": 6182,
      "verde": 6183,
      "ônibus": 6184,
      "interro": 6185,
      "Fri": 6186,
      "Pelo": 6187,
      "rit": 6188,
      "cicl": 6189,
      "excel": 6190,
      "Brasília": 6191,
      "editora": 6192,
      "dú": 6193,
      "##tente": 6194,
      "pion": 6195,
      "School": 6196,
      "universo": 6197,
      "##yal": 6198,
      "##zinho": 6199,
      "Pass": 6200,
      "##íficas": 6201,
      "servir": 6202,
      "##Pro": 6203,
      "##tela": 6204,
      "agu": 6205,
      "permitindo": 6206,
      "aleg": 6207,
      "roteiro": 6208,
      "defender": 6209,
      "##\":": 6210,
      "##trem": 6211,
      "decide": 6212,
      "CO": 6213,
      "testes": 6214,
      "##íde": 6215,
      "Nessa": 6216,
      "jogou": 6217,
      "Jackson": 6218,
      "Polícia": 6219,
      "idio": 6220,
      "Federação": 6221,
      "imigrantes": 6222,
      "inser": 6223,
      "serão": 6224,
      "Senado": 6225,
      "##unas": 6226,
      "##inária": 6227,
      "Lea": 6228,
      "americanos": 6229,
      "costuma": 6230,
      "Sub": 6231,
      "Latina": 6232,
      "conheceu": 6233,
      "manutenção": 6234,
      "simul": 6235,
      "##SS": 6236,
      "cál": 6237,
      "editor": 6238,
      "incent": 6239,
      "recente": 6240,
      "órgão": 6241,
      "##ráficos": 6242,
      "realizados": 6243,
      "##well": 6244,
      "##Ro": 6245,
      "##itê": 6246,
      "frag": 6247,
      "internet": 6248,
      "##óvel": 6249,
      "##meros": 6250,
      "fran": 6251,
      "##gais": 6252,
      "Bos": 6253,
      "##vores": 6254,
      "responsáveis": 6255,
      "300": 6256,
      "##grafo": 6257,
      "##rupção": 6258,
      "Torn": 6259,
      "Hot": 6260,
      "alfa": 6261,
      "##ônicas": 6262,
      "Servi": 6263,
      "Oriente": 6264,
      "modern": 6265,
      "usadas": 6266,
      "anti": 6267,
      "Av": 6268,
      "##cerdo": 6269,
      "explos": 6270,
      "milhão": 6271,
      "vontade": 6272,
      "âmb": 6273,
      "exploração": 6274,
      "conseguiram": 6275,
      "emerg": 6276,
      "Branco": 6277,
      "##oul": 6278,
      "desenvolve": 6279,
      "Cra": 6280,
      "joga": 6281,
      "gravou": 6282,
      "##tainment": 6283,
      "##chu": 6284,
      "##ologias": 6285,
      "Senhor": 6286,
      "redução": 6287,
      "##of": 6288,
      "estr": 6289,
      "Ricardo": 6290,
      "adaptação": 6291,
      "seg": 6292,
      "manhã": 6293,
      "pés": 6294,
      "romana": 6295,
      "japonês": 6296,
      "Hospital": 6297,
      "cidadãos": 6298,
      "##jeto": 6299,
      "##$": 6300,
      "##del": 6301,
      "Bus": 6302,
      "convidado": 6303,
      "##ntação": 6304,
      "Coreia": 6305,
      "##óqu": 6306,
      "russo": 6307,
      "margem": 6308,
      "consumo": 6309,
      "moradores": 6310,
      "##íça": 6311,
      "Aos": 6312,
      "lago": 6313,
      "pensamento": 6314,
      "##odos": 6315,
      "##ificações": 6316,
      "Ocidental": 6317,
      "##mul": 6318,
      "Força": 6319,
      "honra": 6320,
      "aldeia": 6321,
      "formal": 6322,
      "Ly": 6323,
      "000": 6324,
      "empresário": 6325,
      "plataforma": 6326,
      "##win": 6327,
      "carb": 6328,
      "escritos": 6329,
      "registro": 6330,
      "enfrentar": 6331,
      "Ry": 6332,
      "Henry": 6333,
      "famosa": 6334,
      "formando": 6335,
      "quadrinhos": 6336,
      "##18": 6337,
      "Gabri": 6338,
      "estabelecer": 6339,
      "##mato": 6340,
      "1998": 6341,
      "contín": 6342,
      "patrim": 6343,
      "tivesse": 6344,
      "##logo": 6345,
      "discos": 6346,
      "cura": 6347,
      "reação": 6348,
      "jornais": 6349,
      "união": 6350,
      "##aliza": 6351,
      "##elhos": 6352,
      "momentos": 6353,
      "turno": 6354,
      "##iliares": 6355,
      "Bob": 6356,
      "praça": 6357,
      "solic": 6358,
      "utilizar": 6359,
      "##IB": 6360,
      "Duque": 6361,
      "atores": 6362,
      "gravações": 6363,
      "Greg": 6364,
      "cabo": 6365,
      "viveu": 6366,
      "vermelho": 6367,
      "ox": 6368,
      "inglesa": 6369,
      "##any": 6370,
      "Jim": 6371,
      "rap": 6372,
      "##Car": 6373,
      "tocar": 6374,
      "##pree": 6375,
      "##çu": 6376,
      "##ême": 6377,
      "##eios": 6378,
      "Brown": 6379,
      "Estádio": 6380,
      "##éticas": 6381,
      "Avenida": 6382,
      "##lome": 6383,
      "alguém": 6384,
      "##,\"": 6385,
      "extin": 6386,
      "poucas": 6387,
      "restri": 6388,
      "##BS": 6389,
      "elevado": 6390,
      "colaboração": 6391,
      "##ID": 6392,
      "##Mo": 6393,
      "##oroeste": 6394,
      "##rian": 6395,
      "Park": 6396,
      "Marco": 6397,
      "##tificação": 6398,
      "interesses": 6399,
      "##ítica": 6400,
      "carros": 6401,
      "hipótes": 6402,
      "Sw": 6403,
      "##érito": 6404,
      "suporte": 6405,
      "Partic": 6406,
      "instalação": 6407,
      "36": 6408,
      "expul": 6409,
      "filma": 6410,
      "aprend": 6411,
      "##iversário": 6412,
      "conec": 6413,
      "vendeu": 6414,
      "150": 6415,
      "músicos": 6416,
      "##ily": 6417,
      "##tipo": 6418,
      "##indows": 6419,
      "interpretação": 6420,
      "##back": 6421,
      "revistas": 6422,
      "##ntamento": 6423,
      "descreveu": 6424,
      "##ars": 6425,
      "##alidades": 6426,
      "consequência": 6427,
      "##ânc": 6428,
      "##ius": 6429,
      "viole": 6430,
      "físico": 6431,
      "provas": 6432,
      "Leão": 6433,
      "espírito": 6434,
      "feminino": 6435,
      "##din": 6436,
      "2018": 6437,
      "Praça": 6438,
      "##liga": 6439,
      "juntou": 6440,
      "##real": 6441,
      "Son": 6442,
      "Irlanda": 6443,
      "classes": 6444,
      "batal": 6445,
      "expedição": 6446,
      "poeta": 6447,
      "Bet": 6448,
      "Curi": 6449,
      "aparição": 6450,
      "##ciam": 6451,
      "Sho": 6452,
      "Rosa": 6453,
      "usou": 6454,
      "reform": 6455,
      "seguindo": 6456,
      "##deal": 6457,
      "Cos": 6458,
      "sab": 6459,
      "##):": 6460,
      "dema": 6461,
      "##ósito": 6462,
      "##ntaram": 6463,
      "exemplos": 6464,
      "banco": 6465,
      "bilhões": 6466,
      "Espírito": 6467,
      "Verde": 6468,
      "cresceu": 6469,
      "produziu": 6470,
      "##zas": 6471,
      "renda": 6472,
      "Jus": 6473,
      "##antas": 6474,
      "atua": 6475,
      "vere": 6476,
      "discipl": 6477,
      "crescente": 6478,
      "contratado": 6479,
      "universidade": 6480,
      "Juan": 6481,
      "terror": 6482,
      "contendo": 6483,
      "##gel": 6484,
      "##desse": 6485,
      "##ship": 6486,
      "limite": 6487,
      "Almeida": 6488,
      "histórica": 6489,
      "Filipe": 6490,
      "acontece": 6491,
      "apoia": 6492,
      "séries": 6493,
      "##tn": 6494,
      "quím": 6495,
      "moral": 6496,
      "Berlim": 6497,
      "Ribeiro": 6498,
      "resultou": 6499,
      "denominado": 6500,
      "##issa": 6501,
      "analis": 6502,
      "alcançar": 6503,
      "estrangeiros": 6504,
      "##ek": 6505,
      "##vie": 6506,
      "##tane": 6507,
      "Leo": 6508,
      "onda": 6509,
      "##ission": 6510,
      "profunda": 6511,
      "corpos": 6512,
      "##quad": 6513,
      "pec": 6514,
      "mostrar": 6515,
      "festival": 6516,
      "##ates": 6517,
      "indígenas": 6518,
      "##field": 6519,
      "Mary": 6520,
      "##mino": 6521,
      "##rich": 6522,
      "Ira": 6523,
      "Oscar": 6524,
      "proporcion": 6525,
      "infantil": 6526,
      "republic": 6527,
      "iniciativa": 6528,
      "impos": 6529,
      "facilmente": 6530,
      "Belo": 6531,
      "desejo": 6532,
      "secretário": 6533,
      "Lá": 6534,
      "##tram": 6535,
      "cartas": 6536,
      "compartil": 6537,
      "##IS": 6538,
      "Ze": 6539,
      "abriu": 6540,
      "##jamento": 6541,
      "chamar": 6542,
      "próximos": 6543,
      "##jus": 6544,
      "software": 6545,
      "##ixão": 6546,
      "consag": 6547,
      "ameaça": 6548,
      "##nces": 6549,
      "All": 6550,
      "##icago": 6551,
      "Suécia": 6552,
      "individual": 6553,
      "impe": 6554,
      "Essas": 6555,
      "padrões": 6556,
      "##rum": 6557,
      "mexic": 6558,
      "limites": 6559,
      "##mentares": 6560,
      "##tta": 6561,
      "##imbra": 6562,
      "##tions": 6563,
      "trabalhando": 6564,
      "##anço": 6565,
      "Dal": 6566,
      "##raram": 6567,
      "alvo": 6568,
      "exerc": 6569,
      "regional": 6570,
      "alimentos": 6571,
      "semelhantes": 6572,
      "##ísmo": 6573,
      "diferenças": 6574,
      "##/0": 6575,
      "##igração": 6576,
      "contras": 6577,
      "assuntos": 6578,
      "##mond": 6579,
      "candidatos": 6580,
      "##Bill": 6581,
      "Ali": 6582,
      "##iário": 6583,
      "reserv": 6584,
      "faleceu": 6585,
      "fé": 6586,
      "##ouro": 6587,
      "Mur": 6588,
      "Mark": 6589,
      "humor": 6590,
      "preserv": 6591,
      "##pin": 6592,
      "motivos": 6593,
      "guitarra": 6594,
      "aut": 6595,
      "Esses": 6596,
      "fantas": 6597,
      "garantir": 6598,
      "italiana": 6599,
      "caiu": 6600,
      "bairros": 6601,
      "°": 6602,
      "ala": 6603,
      "##íncias": 6604,
      "##bul": 6605,
      "##the": 6606,
      "Johns": 6607,
      "historiador": 6608,
      "##rey": 6609,
      "##11": 6610,
      "fach": 6611,
      "Popular": 6612,
      "##ceano": 6613,
      "pele": 6614,
      "lados": 6615,
      "tempest": 6616,
      "conflitos": 6617,
      "absor": 6618,
      "objec": 6619,
      "prazo": 6620,
      "naquela": 6621,
      "##sequ": 6622,
      "ile": 6623,
      "Linha": 6624,
      "órgãos": 6625,
      "##posições": 6626,
      "escolhe": 6627,
      "aberta": 6628,
      "mata": 6629,
      "Engenh": 6630,
      "inimigo": 6631,
      "##esia": 6632,
      "tradução": 6633,
      "##baixo": 6634,
      "Sand": 6635,
      "decreto": 6636,
      "##capa": 6637,
      "Pouco": 6638,
      "acrescent": 6639,
      "Patr": 6640,
      "roub": 6641,
      "quebra": 6642,
      "igualmente": 6643,
      "##fes": 6644,
      "civis": 6645,
      "professores": 6646,
      "democra": 6647,
      "exceção": 6648,
      "coo": 6649,
      "inteira": 6650,
      "##adeia": 6651,
      "autoria": 6652,
      "império": 6653,
      "##pto": 6654,
      "parada": 6655,
      "##tto": 6656,
      "posterior": 6657,
      "##ciar": 6658,
      "bronze": 6659,
      "sobera": 6660,
      "vindo": 6661,
      "Windows": 6662,
      "indivíduo": 6663,
      "##uru": 6664,
      "âmbito": 6665,
      "##ócia": 6666,
      "regra": 6667,
      "agente": 6668,
      "advogado": 6669,
      "lançar": 6670,
      "revolucion": 6671,
      "##In": 6672,
      "Hill": 6673,
      "amare": 6674,
      "permitir": 6675,
      "##tões": 6676,
      "##inter": 6677,
      "Pernambuco": 6678,
      "Ó": 6679,
      "lutar": 6680,
      "##idores": 6681,
      "##inguém": 6682,
      "##ventude": 6683,
      "##olas": 6684,
      "##quete": 6685,
      "##quista": 6686,
      "Holly": 6687,
      "barra": 6688,
      "aliados": 6689,
      "semif": 6690,
      "papéis": 6691,
      "assassinato": 6692,
      "##more": 6693,
      "Homem": 6694,
      "##bá": 6695,
      "##atório": 6696,
      "canais": 6697,
      "popularidade": 6698,
      "dit": 6699,
      "designa": 6700,
      "##cife": 6701,
      "##orro": 6702,
      "Chile": 6703,
      "Jan": 6704,
      "situado": 6705,
      "naz": 6706,
      "denominação": 6707,
      "vocalista": 6708,
      "##pé": 6709,
      "aniversário": 6710,
      "avião": 6711,
      "significado": 6712,
      "PC": 6713,
      "produtores": 6714,
      "Ev": 6715,
      "core": 6716,
      "Equ": 6717,
      "durou": 6718,
      "recusou": 6719,
      "##pi": 6720,
      "Barcel": 6721,
      "justiça": 6722,
      "45": 6723,
      "Beat": 6724,
      "Lago": 6725,
      "face": 6726,
      "inéd": 6727,
      "partí": 6728,
      "##ianismo": 6729,
      "proxim": 6730,
      "##dão": 6731,
      "configu": 6732,
      "vag": 6733,
      "XVII": 6734,
      "infec": 6735,
      "tan": 6736,
      "##Sta": 6737,
      "indo": 6738,
      "derru": 6739,
      "rápida": 6740,
      "Desenvolvimento": 6741,
      "gar": 6742,
      "estando": 6743,
      "Fra": 6744,
      "patroc": 6745,
      "esforços": 6746,
      "##nome": 6747,
      "fortemente": 6748,
      "trama": 6749,
      "direta": 6750,
      "levado": 6751,
      "criando": 6752,
      "##leza": 6753,
      "pobre": 6754,
      "concentração": 6755,
      "regress": 6756,
      "perdendo": 6757,
      "##tive": 6758,
      "casar": 6759,
      "espanhola": 6760,
      "##Un": 6761,
      "##tral": 6762,
      "Grã": 6763,
      "últimas": 6764,
      "##AR": 6765,
      "subme": 6766,
      "ino": 6767,
      "estréia": 6768,
      "vendido": 6769,
      "conclusão": 6770,
      "doenças": 6771,
      "aeronave": 6772,
      "##15": 6773,
      "##far": 6774,
      "dito": 6775,
      "recol": 6776,
      "levaram": 6777,
      "videocl": 6778,
      "baix": 6779,
      "Domin": 6780,
      "localização": 6781,
      "##-4": 6782,
      "##ctos": 6783,
      "dissol": 6784,
      "índios": 6785,
      "continente": 6786,
      "##tti": 6787,
      "brilha": 6788,
      "discurso": 6789,
      "entidade": 6790,
      "personalidade": 6791,
      "poe": 6792,
      "passo": 6793,
      "1960": 6794,
      "atuar": 6795,
      "fábrica": 6796,
      "assunto": 6797,
      "sinais": 6798,
      "quin": 6799,
      "##torial": 6800,
      "habilidades": 6801,
      "cô": 6802,
      "Sel": 6803,
      "sinto": 6804,
      "embaix": 6805,
      "urbana": 6806,
      "pinturas": 6807,
      "moderno": 6808,
      "possíveis": 6809,
      "presidência": 6810,
      "##oland": 6811,
      "##rinho": 6812,
      "global": 6813,
      "grave": 6814,
      "medic": 6815,
      "cm": 6816,
      "Stre": 6817,
      "giga": 6818,
      "opinião": 6819,
      "componentes": 6820,
      "##itários": 6821,
      "Cinema": 6822,
      "instalações": 6823,
      "##tróleo": 6824,
      "começar": 6825,
      "##Gra": 6826,
      "1997": 6827,
      "altas": 6828,
      "pontu": 6829,
      "##gráfico": 6830,
      "promoção": 6831,
      "créd": 6832,
      "##identes": 6833,
      "explica": 6834,
      "##vision": 6835,
      "Suíça": 6836,
      "vocais": 6837,
      "revolta": 6838,
      "##gadas": 6839,
      "Inicialmente": 6840,
      "autom": 6841,
      "##án": 6842,
      "Teres": 6843,
      "protagonista": 6844,
      "##ild": 6845,
      "cad": 6846,
      "ram": 6847,
      "regula": 6848,
      "##ministro": 6849,
      "##3%": 6850,
      "impression": 6851,
      "Tim": 6852,
      "prome": 6853,
      "elétrica": 6854,
      "frequent": 6855,
      "exclusivamente": 6856,
      "Wo": 6857,
      "tabela": 6858,
      "##dado": 6859,
      "alterações": 6860,
      "britânicos": 6861,
      "##25": 6862,
      "missões": 6863,
      "Príncipe": 6864,
      "conselho": 6865,
      "apresentações": 6866,
      "##sem": 6867,
      "##unção": 6868,
      "unif": 6869,
      "anex": 6870,
      "Bento": 6871,
      "perspec": 6872,
      "representantes": 6873,
      "fluxo": 6874,
      "documento": 6875,
      "MTV": 6876,
      "Saint": 6877,
      "prision": 6878,
      "destruição": 6879,
      "aulas": 6880,
      "##upas": 6881,
      "##enciado": 6882,
      "##Me": 6883,
      "cred": 6884,
      "revela": 6885,
      "reconhecido": 6886,
      "Scott": 6887,
      "Música": 6888,
      "##ose": 6889,
      "chave": 6890,
      "##gs": 6891,
      "##táculo": 6892,
      "ficção": 6893,
      "##Con": 6894,
      "teleno": 6895,
      "enterra": 6896,
      "afirmando": 6897,
      "mm": 6898,
      "domés": 6899,
      "Unidas": 6900,
      "práticas": 6901,
      "van": 6902,
      "##ms": 6903,
      "fácil": 6904,
      "Joseph": 6905,
      "densidade": 6906,
      "##cóp": 6907,
      "pô": 6908,
      "Alves": 6909,
      "partidos": 6910,
      "transferência": 6911,
      "##tiba": 6912,
      "##hados": 6913,
      "Maur": 6914,
      "##uda": 6915,
      "##cant": 6916,
      "Mem": 6917,
      "Gir": 6918,
      "dividido": 6919,
      "descobriu": 6920,
      "soma": 6921,
      "situada": 6922,
      "##fal": 6923,
      "ramo": 6924,
      "máxima": 6925,
      "cobertura": 6926,
      "funcionamento": 6927,
      "Sur": 6928,
      "portas": 6929,
      "crítico": 6930,
      "conquistar": 6931,
      "guitarrista": 6932,
      "##ij": 6933,
      "líqu": 6934,
      "Coimbra": 6935,
      "artístico": 6936,
      "daí": 6937,
      "calor": 6938,
      "progress": 6939,
      "##lie": 6940,
      "##ângulo": 6941,
      "tribu": 6942,
      "##riga": 6943,
      "imposs": 6944,
      "adolesc": 6945,
      "##ille": 6946,
      "mensagem": 6947,
      "suce": 6948,
      "competições": 6949,
      "##16": 6950,
      "##4%": 6951,
      "anda": 6952,
      "##eck": 6953,
      "##ink": 6954,
      "Olímpicos": 6955,
      "##onald": 6956,
      "Toda": 6957,
      "estatu": 6958,
      "##urgo": 6959,
      "danos": 6960,
      "##toc": 6961,
      "##vante": 6962,
      "Mário": 6963,
      "Possui": 6964,
      "espacial": 6965,
      "##tropolitana": 6966,
      "har": 6967,
      "Idade": 6968,
      "esque": 6969,
      "roupas": 6970,
      "Tratado": 6971,
      "top": 6972,
      "Pref": 6973,
      "educa": 6974,
      "vítimas": 6975,
      "disponibil": 6976,
      "##vy": 6977,
      "Luis": 6978,
      "comissão": 6979,
      "múlti": 6980,
      "rural": 6981,
      "Ty": 6982,
      "##tização": 6983,
      "denominada": 6984,
      "##ison": 6985,
      "árabe": 6986,
      "zonas": 6987,
      "expand": 6988,
      "exibida": 6989,
      "sacerdo": 6990,
      "Joe": 6991,
      "treinamento": 6992,
      "##GE": 6993,
      "juda": 6994,
      "curto": 6995,
      "fornece": 6996,
      "máquina": 6997,
      "elogi": 6998,
      "Sistema": 6999,
      "chamadas": 7000,
      "relacionados": 7001,
      "##burg": 7002,
      "##ural": 7003,
      "semi": 7004,
      "##cebispo": 7005,
      "##ortaleza": 7006,
      "emprego": 7007,
      "##kh": 7008,
      "riqu": 7009,
      "recep": 7010,
      "Muitas": 7011,
      "descreve": 7012,
      "enfrentou": 7013,
      "geog": 7014,
      "rote": 7015,
      "Louis": 7016,
      "##+": 7017,
      "##ôno": 7018,
      "##eitas": 7019,
      "latim": 7020,
      "Figu": 7021,
      "##nderam": 7022,
      "Human": 7023,
      "Flores": 7024,
      "descrito": 7025,
      "Us": 7026,
      "##mand": 7027,
      "##rador": 7028,
      "invent": 7029,
      "esforço": 7030,
      "amos": 7031,
      "bola": 7032,
      "aeroporto": 7033,
      "aparel": 7034,
      "formam": 7035,
      "ausência": 7036,
      "Primeiro": 7037,
      "##MS": 7038,
      "##pan": 7039,
      "acel": 7040,
      "Ceará": 7041,
      "enredo": 7042,
      "##_3": 7043,
      "namo": 7044,
      "crista": 7045,
      "##Su": 7046,
      "##Bre": 7047,
      "178": 7048,
      "Entertainment": 7049,
      "##São": 7050,
      "duque": 7051,
      "##mbo": 7052,
      "Tw": 7053,
      "##organ": 7054,
      "arco": 7055,
      "##erante": 7056,
      "##ibe": 7057,
      "tido": 7058,
      "razões": 7059,
      "##rad": 7060,
      "WW": 7061,
      "pista": 7062,
      "##lou": 7063,
      "##bral": 7064,
      "##quês": 7065,
      "Atl": 7066,
      "lojas": 7067,
      "amplamente": 7068,
      "Horizonte": 7069,
      "IB": 7070,
      "##ráficas": 7071,
      "aparência": 7072,
      "##IN": 7073,
      "Sto": 7074,
      "##rez": 7075,
      "##Gu": 7076,
      "Ib": 7077,
      "solu": 7078,
      "interpretou": 7079,
      "descendentes": 7080,
      "##orra": 7081,
      "detalhes": 7082,
      "religiosas": 7083,
      "##mbia": 7084,
      "Spe": 7085,
      "baixas": 7086,
      "períodos": 7087,
      "FM": 7088,
      "##presa": 7089,
      "pintor": 7090,
      "inaugurado": 7091,
      "##úl": 7092,
      "acha": 7093,
      "peda": 7094,
      "carnaval": 7095,
      "arro": 7096,
      "##rático": 7097,
      "cerimônia": 7098,
      "##lei": 7099,
      "Ku": 7100,
      "##bine": 7101,
      "eventualmente": 7102,
      "legal": 7103,
      "cumpri": 7104,
      "podemos": 7105,
      "recentes": 7106,
      "##istos": 7107,
      "Carl": 7108,
      "Vicente": 7109,
      "##íbrio": 7110,
      "##tidas": 7111,
      "teriam": 7112,
      "labora": 7113,
      "apaixon": 7114,
      "amplia": 7115,
      "representante": 7116,
      "Rece": 7117,
      "##uminense": 7118,
      "pudesse": 7119,
      "comédia": 7120,
      "##Billboard": 7121,
      "minha": 7122,
      "prefeitura": 7123,
      "caça": 7124,
      "notável": 7125,
      "estudios": 7126,
      "##low": 7127,
      "restantes": 7128,
      "realiza": 7129,
      "árvores": 7130,
      "engenheiro": 7131,
      "##Bo": 7132,
      "exibição": 7133,
      "##nal": 7134,
      "##itério": 7135,
      "Madrid": 7136,
      "##ata": 7137,
      "On": 7138,
      "##vens": 7139,
      "Ren": 7140,
      "combust": 7141,
      "Oeste": 7142,
      "usuário": 7143,
      "##elli": 7144,
      "Big": 7145,
      "##essões": 7146,
      "##também": 7147,
      "padre": 7148,
      "dinastia": 7149,
      "encontrada": 7150,
      "aparentemente": 7151,
      "##ampa": 7152,
      "##mont": 7153,
      "Legisla": 7154,
      "performance": 7155,
      "##90": 7156,
      "transição": 7157,
      "aeronaves": 7158,
      "##ésia": 7159,
      "Alto": 7160,
      "Mato": 7161,
      "defens": 7162,
      "proteger": 7163,
      "##pra": 7164,
      "Ti": 7165,
      "##triar": 7166,
      "Internet": 7167,
      "animação": 7168,
      "lançados": 7169,
      "Pode": 7170,
      "esporte": 7171,
      "potência": 7172,
      "##inga": 7173,
      "##ástico": 7174,
      "fusão": 7175,
      "promovido": 7176,
      "##lar": 7177,
      "Só": 7178,
      "tela": 7179,
      "Norma": 7180,
      "Ano": 7181,
      "crimes": 7182,
      "##geral": 7183,
      "preço": 7184,
      "33": 7185,
      "##mira": 7186,
      "trinta": 7187,
      "altos": 7188,
      "##kes": 7189,
      "medie": 7190,
      "introdução": 7191,
      "##izade": 7192,
      "Sendo": 7193,
      "distingu": 7194,
      "espiritual": 7195,
      "##El": 7196,
      "Faze": 7197,
      "pagar": 7198,
      "colocou": 7199,
      "card": 7200,
      "colocar": 7201,
      "inverno": 7202,
      "motores": 7203,
      "produzidos": 7204,
      "EP": 7205,
      "sou": 7206,
      "Rol": 7207,
      "Amor": 7208,
      "agentes": 7209,
      "objetivos": 7210,
      "leve": 7211,
      "Jardim": 7212,
      "Oriental": 7213,
      "populações": 7214,
      "Parla": 7215,
      "cristã": 7216,
      "Chicago": 7217,
      "envolve": 7218,
      "##work": 7219,
      "Dam": 7220,
      "Marcos": 7221,
      "eg": 7222,
      "sepul": 7223,
      "incênd": 7224,
      "libera": 7225,
      "uns": 7226,
      "capazes": 7227,
      "Europeia": 7228,
      "fla": 7229,
      "aves": 7230,
      "suic": 7231,
      "##FL": 7232,
      "Game": 7233,
      "##=\"": 7234,
      "astro": 7235,
      "Acre": 7236,
      "capítulo": 7237,
      "##ices": 7238,
      "Supre": 7239,
      "marcado": 7240,
      "nascido": 7241,
      "procedi": 7242,
      "notícias": 7243,
      "##ndon": 7244,
      "Sport": 7245,
      "vantagem": 7246,
      "##mé": 7247,
      "##zinha": 7248,
      "matemática": 7249,
      "sexta": 7250,
      "elevada": 7251,
      "Ya": 7252,
      "recorre": 7253,
      "tomada": 7254,
      "religioso": 7255,
      "Terc": 7256,
      "rumo": 7257,
      "senhor": 7258,
      "desembar": 7259,
      "espaços": 7260,
      "câme": 7261,
      "resga": 7262,
      "disputar": 7263,
      "apresentando": 7264,
      "##rico": 7265,
      "Mill": 7266,
      "culto": 7267,
      "interval": 7268,
      "Hit": 7269,
      "##ning": 7270,
      "raça": 7271,
      "Alfre": 7272,
      "temos": 7273,
      "##ball": 7274,
      "nosso": 7275,
      "telef": 7276,
      "coloca": 7277,
      "desper": 7278,
      "permanece": 7279,
      "##ramente": 7280,
      "UN": 7281,
      "passe": 7282,
      "contar": 7283,
      "##ástica": 7284,
      "províncias": 7285,
      "##RE": 7286,
      "400": 7287,
      "exist": 7288,
      "salas": 7289,
      "Nordeste": 7290,
      "centenas": 7291,
      "sucessor": 7292,
      "Fortaleza": 7293,
      "##além": 7294,
      "neu": 7295,
      "sil": 7296,
      "japonesa": 7297,
      "localidade": 7298,
      "##don": 7299,
      "posteriores": 7300,
      "clássica": 7301,
      "definido": 7302,
      "##ited": 7303,
      "ati": 7304,
      "repor": 7305,
      "Recife": 7306,
      "receberam": 7307,
      "nossa": 7308,
      "drogas": 7309,
      "Championship": 7310,
      "##7%": 7311,
      "Pira": 7312,
      "##Por": 7313,
      "1996": 7314,
      "comparação": 7315,
      "aspecto": 7316,
      "segundos": 7317,
      "situações": 7318,
      "experiências": 7319,
      "deram": 7320,
      "floresta": 7321,
      "##meras": 7322,
      "Lopes": 7323,
      "associado": 7324,
      "instrumento": 7325,
      "##avi": 7326,
      "##itam": 7327,
      "sta": 7328,
      "criados": 7329,
      "paradas": 7330,
      "Hollywood": 7331,
      "europeu": 7332,
      "religiosos": 7333,
      "Orig": 7334,
      "fotos": 7335,
      "##mentado": 7336,
      "##americanos": 7337,
      "##imar": 7338,
      "encontrava": 7339,
      "##itro": 7340,
      "##ingos": 7341,
      "She": 7342,
      "meu": 7343,
      "aprovação": 7344,
      "##cidas": 7345,
      "concer": 7346,
      "senador": 7347,
      "viagens": 7348,
      "habilidade": 7349,
      "##penh": 7350,
      "crit": 7351,
      "branca": 7352,
      "##êu": 7353,
      "Ate": 7354,
      "asc": 7355,
      "horário": 7356,
      "tentativas": 7357,
      "##gador": 7358,
      "Lú": 7359,
      "##ises": 7360,
      "modernos": 7361,
      "##umes": 7362,
      "##ânio": 7363,
      "##itido": 7364,
      "primo": 7365,
      "ocorrido": 7366,
      "paredes": 7367,
      "Rena": 7368,
      "Bow": 7369,
      "##alizado": 7370,
      "extrem": 7371,
      "Martins": 7372,
      "petróleo": 7373,
      "possivelmente": 7374,
      "##45": 7375,
      "Stan": 7376,
      "Tecn": 7377,
      "##centes": 7378,
      "evang": 7379,
      "superiores": 7380,
      "##2%": 7381,
      "##geu": 7382,
      "Dina": 7383,
      "toca": 7384,
      "pertencente": 7385,
      "coroa": 7386,
      "êx": 7387,
      "##escente": 7388,
      "envolvendo": 7389,
      "bon": 7390,
      "Programa": 7391,
      "tio": 7392,
      "Sebasti": 7393,
      "restante": 7394,
      "bic": 7395,
      "##borou": 7396,
      "##únior": 7397,
      "dividida": 7398,
      "relatório": 7399,
      "##8%": 7400,
      "##ence": 7401,
      "1995": 7402,
      "músico": 7403,
      "tentando": 7404,
      "dí": 7405,
      "lou": 7406,
      "foco": 7407,
      "influências": 7408,
      "Rel": 7409,
      "Comics": 7410,
      "árvore": 7411,
      "##ótico": 7412,
      "bateria": 7413,
      "margens": 7414,
      "ordenou": 7415,
      "representar": 7416,
      "destacam": 7417,
      "intervenção": 7418,
      "Cho": 7419,
      "refu": 7420,
      "sítio": 7421,
      "conhece": 7422,
      "volunt": 7423,
      "##osamente": 7424,
      "recebendo": 7425,
      "##div": 7426,
      "devo": 7427,
      "Bou": 7428,
      "Índ": 7429,
      "mantendo": 7430,
      "executivo": 7431,
      "Hal": 7432,
      "desce": 7433,
      "econó": 7434,
      "Michel": 7435,
      "##AC": 7436,
      "Jornal": 7437,
      "folhas": 7438,
      "##fim": 7439,
      "##velas": 7440,
      "erro": 7441,
      "Andre": 7442,
      "encontradas": 7443,
      "casado": 7444,
      "Machado": 7445,
      "Nick": 7446,
      "##ross": 7447,
      "reiv": 7448,
      "Maran": 7449,
      "cancel": 7450,
      "influenci": 7451,
      "##lação": 7452,
      "larga": 7453,
      "votação": 7454,
      "equivalente": 7455,
      "##fund": 7456,
      "##érico": 7457,
      "povoado": 7458,
      "##core": 7459,
      "Colle": 7460,
      "Ministro": 7461,
      "desenhos": 7462,
      "##ME": 7463,
      "Jones": 7464,
      "diver": 7465,
      "conceitos": 7466,
      "177": 7467,
      "artif": 7468,
      "samba": 7469,
      "Aires": 7470,
      "##regado": 7471,
      "juiz": 7472,
      "##org": 7473,
      "##gura": 7474,
      "##trias": 7475,
      "cadeia": 7476,
      "mesmas": 7477,
      "revelado": 7478,
      "cujos": 7479,
      "visual": 7480,
      "Gabriel": 7481,
      "pena": 7482,
      "nação": 7483,
      "fachada": 7484,
      "##st": 7485,
      "Pont": 7486,
      "##çú": 7487,
      "##uck": 7488,
      "ben": 7489,
      "##ânicos": 7490,
      "recru": 7491,
      "velha": 7492,
      "causou": 7493,
      "##hen": 7494,
      "Cin": 7495,
      "descar": 7496,
      "homenage": 7497,
      "Will": 7498,
      "bases": 7499,
      "financeira": 7500,
      "representando": 7501,
      "##ônias": 7502,
      "ideal": 7503,
      "engenharia": 7504,
      "gravar": 7505,
      "##mero": 7506,
      "##íaco": 7507,
      "Ten": 7508,
      "voto": 7509,
      "Frederico": 7510,
      "Fox": 7511,
      "Adam": 7512,
      "segre": 7513,
      "Sé": 7514,
      "incapa": 7515,
      "indicado": 7516,
      "Barcelona": 7517,
      "##iria": 7518,
      "League": 7519,
      "tiro": 7520,
      "atras": 7521,
      "rejei": 7522,
      "distin": 7523,
      "175": 7524,
      "press": 7525,
      "Rainha": 7526,
      "teorias": 7527,
      "necessária": 7528,
      "##NU": 7529,
      "Escócia": 7530,
      "Universal": 7531,
      "altamente": 7532,
      "##inando": 7533,
      "Pesso": 7534,
      "##So": 7535,
      "##blo": 7536,
      "Hon": 7537,
      "atmosfera": 7538,
      "confirmou": 7539,
      "Edward": 7540,
      "##cr": 7541,
      "Pia": 7542,
      "log": 7543,
      "descobrir": 7544,
      "##DE": 7545,
      "Ps": 7546,
      "##rita": 7547,
      "Prov": 7548,
      "cere": 7549,
      "previs": 7550,
      "ganhando": 7551,
      "Atlântico": 7552,
      "Fro": 7553,
      "construiu": 7554,
      "tendência": 7555,
      "interessa": 7556,
      "##fin": 7557,
      "Cy": 7558,
      "adultos": 7559,
      "Rub": 7560,
      "retorna": 7561,
      "derrotar": 7562,
      "Cre": 7563,
      "Dre": 7564,
      "##inário": 7565,
      "##ndário": 7566,
      "##gam": 7567,
      "café": 7568,
      "econom": 7569,
      "atravess": 7570,
      "##ávia": 7571,
      "##doeste": 7572,
      "mente": 7573,
      "inúmeras": 7574,
      "##gên": 7575,
      "##inger": 7576,
      "Fran": 7577,
      "Stra": 7578,
      "times": 7579,
      "traje": 7580,
      "Jon": 7581,
      "canad": 7582,
      "aquela": 7583,
      "posicion": 7584,
      "##refa": 7585,
      "página": 7586,
      "revolução": 7587,
      "divulgação": 7588,
      "##tid": 7589,
      "##ariamente": 7590,
      "##asa": 7591,
      "Praia": 7592,
      "Marcelo": 7593,
      "veículo": 7594,
      "##onia": 7595,
      "##seis": 7596,
      "Bíbl": 7597,
      "avis": 7598,
      "Reis": 7599,
      "direto": 7600,
      "exceto": 7601,
      "tensão": 7602,
      "orientação": 7603,
      "##urgia": 7604,
      "ofens": 7605,
      "empate": 7606,
      "registros": 7607,
      "julgamento": 7608,
      "fases": 7609,
      "1994": 7610,
      "oper": 7611,
      "radia": 7612,
      "Batista": 7613,
      "dificuldade": 7614,
      "Gram": 7615,
      "estabelecimento": 7616,
      "Nel": 7617,
      "##eirão": 7618,
      "Lucas": 7619,
      "fator": 7620,
      "coluna": 7621,
      "entrev": 7622,
      "adquiriu": 7623,
      "definida": 7624,
      "determinar": 7625,
      "##6%": 7626,
      "proven": 7627,
      "aparecem": 7628,
      "##fei": 7629,
      "trecho": 7630,
      "Bandeira": 7631,
      "usam": 7632,
      "##postos": 7633,
      "mural": 7634,
      "assist": 7635,
      "custos": 7636,
      "Company": 7637,
      "Público": 7638,
      "Secretaria": 7639,
      "##unk": 7640,
      "##émio": 7641,
      "dep": 7642,
      "##.)": 7643,
      "Zel": 7644,
      "bilhe": 7645,
      "Cultural": 7646,
      "##itadas": 7647,
      "supri": 7648,
      "brasileiras": 7649,
      "##9%": 7650,
      "Get": 7651,
      "cír": 7652,
      "conex": 7653,
      "##ólogos": 7654,
      "Times": 7655,
      "ativa": 7656,
      "atacar": 7657,
      "tempestade": 7658,
      "certific": 7659,
      "##óso": 7660,
      "pain": 7661,
      "White": 7662,
      "notas": 7663,
      "necessidades": 7664,
      "##AN": 7665,
      "pouca": 7666,
      "retornar": 7667,
      "estratégia": 7668,
      "##beth": 7669,
      "piano": 7670,
      "utilizadas": 7671,
      "medo": 7672,
      "arquivos": 7673,
      "abre": 7674,
      "rota": 7675,
      "##rática": 7676,
      "passam": 7677,
      "médicos": 7678,
      "##nsul": 7679,
      "##mentas": 7680,
      "##onatos": 7681,
      "matriz": 7682,
      "constituição": 7683,
      "Gas": 7684,
      "Luz": 7685,
      "Evang": 7686,
      "##cea": 7687,
      "##õem": 7688,
      "italianos": 7689,
      "sól": 7690,
      "##ganda": 7691,
      "descober": 7692,
      "retirada": 7693,
      "Imperador": 7694,
      "vaz": 7695,
      "##gênio": 7696,
      "Rodrigo": 7697,
      "fazenda": 7698,
      "##thur": 7699,
      "##teira": 7700,
      "bordo": 7701,
      "ligado": 7702,
      "##edas": 7703,
      "##minal": 7704,
      "ocorrem": 7705,
      "1991": 7706,
      "lhes": 7707,
      "Barra": 7708,
      "Franco": 7709,
      "surpree": 7710,
      "##An": 7711,
      "Tel": 7712,
      "Preto": 7713,
      "carne": 7714,
      "##eir": 7715,
      "sorte": 7716,
      "FIFA": 7717,
      "lógica": 7718,
      "contava": 7719,
      "ultrapass": 7720,
      "historiadores": 7721,
      "Sr": 7722,
      "Boa": 7723,
      "Cabo": 7724,
      "##mossex": 7725,
      "Corte": 7726,
      "Melo": 7727,
      "Song": 7728,
      "repu": 7729,
      "melhorar": 7730,
      "independentes": 7731,
      "##élgica": 7732,
      "assume": 7733,
      "line": 7734,
      "encome": 7735,
      "ocorrer": 7736,
      "desempenh": 7737,
      "##dical": 7738,
      "##tendo": 7739,
      "compet": 7740,
      "Estudos": 7741,
      "aplicações": 7742,
      "##feira": 7743,
      "cargos": 7744,
      "transformação": 7745,
      "##iadas": 7746,
      "Capitão": 7747,
      "Estação": 7748,
      "ninguém": 7749,
      "sucedido": 7750,
      "compil": 7751,
      "localiza": 7752,
      "intitulada": 7753,
      "índice": 7754,
      "##rop": 7755,
      "Má": 7756,
      "##indica": 7757,
      "##tizado": 7758,
      "recuperar": 7759,
      "##esp": 7760,
      "##wal": 7761,
      "vie": 7762,
      "1992": 7763,
      "egíp": 7764,
      "românt": 7765,
      "comprome": 7766,
      "##lash": 7767,
      "Palme": 7768,
      "negros": 7769,
      "biblioteca": 7770,
      "##rie": 7771,
      "Sus": 7772,
      "decis": 7773,
      "gêneros": 7774,
      "##cá": 7775,
      "##ika": 7776,
      "Jr": 7777,
      "Victor": 7778,
      "pessoais": 7779,
      "sucessos": 7780,
      "históricos": 7781,
      "individuais": 7782,
      "privada": 7783,
      "##Po": 7784,
      "Yu": 7785,
      "##elly": 7786,
      "Campe": 7787,
      "Souza": 7788,
      "aliança": 7789,
      "nordeste": 7790,
      "fede": 7791,
      "oriental": 7792,
      "##13": 7793,
      "Night": 7794,
      "##ipais": 7795,
      "##atas": 7796,
      "gratu": 7797,
      "##úne": 7798,
      "boas": 7799,
      "moda": 7800,
      "radio": 7801,
      "Atlético": 7802,
      "permanente": 7803,
      "##gno": 7804,
      "##úncia": 7805,
      "Pier": 7806,
      "sequ": 7807,
      "Braga": 7808,
      "dirigiu": 7809,
      "##1%": 7810,
      "Via": 7811,
      "poesia": 7812,
      "homossex": 7813,
      "##imp": 7814,
      "praia": 7815,
      "orquestra": 7816,
      "##peu": 7817,
      "UE": 7818,
      "Lan": 7819,
      "estilos": 7820,
      "inteiro": 7821,
      "Ray": 7822,
      "atos": 7823,
      "inse": 7824,
      "nações": 7825,
      "##ep": 7826,
      "Wat": 7827,
      "beleza": 7828,
      "externa": 7829,
      "Constantinopla": 7830,
      "##hando": 7831,
      "Ross": 7832,
      "Júlio": 7833,
      "atletas": 7834,
      "existente": 7835,
      "It": 7836,
      "aper": 7837,
      "aviões": 7838,
      "##ani": 7839,
      "##To": 7840,
      "loja": 7841,
      "masculino": 7842,
      "##•": 7843,
      "Fol": 7844,
      "jura": 7845,
      "Pinto": 7846,
      "mínimo": 7847,
      "dimensões": 7848,
      "alternativa": 7849,
      "bloco": 7850,
      "invest": 7851,
      "##teor": 7852,
      "##ínios": 7853,
      "requer": 7854,
      "pagamento": 7855,
      "Lua": 7856,
      "Depu": 7857,
      "Santiago": 7858,
      "Lad": 7859,
      "##tidão": 7860,
      "salvar": 7861,
      "litoral": 7862,
      "campanhas": 7863,
      "##AP": 7864,
      "favore": 7865,
      "##Em": 7866,
      "##gias": 7867,
      "páginas": 7868,
      "Sá": 7869,
      "##cura": 7870,
      "rever": 7871,
      "surge": 7872,
      "vivem": 7873,
      "Mendes": 7874,
      "fabrica": 7875,
      "clientes": 7876,
      "##itir": 7877,
      "##mobil": 7878,
      "##ítulos": 7879,
      "##óquia": 7880,
      "ritmo": 7881,
      "##fu": 7882,
      "##âncer": 7883,
      "##atória": 7884,
      "Países": 7885,
      "Imperial": 7886,
      "avaliação": 7887,
      "##cons": 7888,
      "anc": 7889,
      "Pela": 7890,
      "Polônia": 7891,
      "circuns": 7892,
      "flo": 7893,
      "DC": 7894,
      "Villa": 7895,
      "Dentre": 7896,
      "##identais": 7897,
      "pertencia": 7898,
      "tonel": 7899,
      "espanhóis": 7900,
      "equilíbrio": 7901,
      "##mir": 7902,
      "ving": 7903,
      "##ap": 7904,
      "##hy": 7905,
      "##ilton": 7906,
      "Guarda": 7907,
      "argent": 7908,
      "##ante": 7909,
      "Pac": 7910,
      "reis": 7911,
      "fugir": 7912,
      "câmara": 7913,
      "química": 7914,
      "Ponte": 7915,
      "Especial": 7916,
      "videoclipe": 7917,
      "##OL": 7918,
      "##teza": 7919,
      "hel": 7920,
      "associados": 7921,
      "##ciano": 7922,
      "Napole": 7923,
      "camisa": 7924,
      "presos": 7925,
      "abordagem": 7926,
      "cientistas": 7927,
      "peri": 7928,
      "Grosso": 7929,
      "medicina": 7930,
      "CE": 7931,
      "estiv": 7932,
      "Bélgica": 7933,
      "ré": 7934,
      "pede": 7935,
      "Johnson": 7936,
      "acontecimentos": 7937,
      "auton": 7938,
      "solar": 7939,
      "confer": 7940,
      "artística": 7941,
      "##melh": 7942,
      "##ifere": 7943,
      "possam": 7944,
      "##Jo": 7945,
      "Top": 7946,
      "serve": 7947,
      "##wan": 7948,
      "bis": 7949,
      "list": 7950,
      "primi": 7951,
      "##itações": 7952,
      "##áx": 7953,
      "aceitou": 7954,
      "perdido": 7955,
      "Medicina": 7956,
      "concerto": 7957,
      "moléc": 7958,
      "##uela": 7959,
      "hid": 7960,
      "##tismo": 7961,
      "##âmetro": 7962,
      "Green": 7963,
      "Uruguai": 7964,
      "consideradas": 7965,
      "##ury": 7966,
      "preto": 7967,
      "proba": 7968,
      "cinemato": 7969,
      "daquela": 7970,
      "satélite": 7971,
      "##kov": 7972,
      "##mengo": 7973,
      "##Com": 7974,
      "##idi": 7975,
      "##press": 7976,
      "Aérea": 7977,
      "##Bretanha": 7978,
      "proemin": 7979,
      "Pará": 7980,
      "onze": 7981,
      "apresentada": 7982,
      "referências": 7983,
      "Vida": 7984,
      "máquinas": 7985,
      "pacientes": 7986,
      "##quesa": 7987,
      "##çúcar": 7988,
      "fama": 7989,
      "urbano": 7990,
      "comunic": 7991,
      "incluiu": 7992,
      "montanhas": 7993,
      "separação": 7994,
      "Way": 7995,
      "reel": 7996,
      "##14": 7997,
      "##onna": 7998,
      "Goiás": 7999,
      "fabric": 8000,
      "fundos": 8001,
      "estaria": 8002,
      "turismo": 8003,
      "ergu": 8004,
      "herói": 8005,
      "filóso": 8006,
      "##âns": 8007,
      "##rade": 8008,
      "grega": 8009,
      "##orrência": 8010,
      "publicados": 8011,
      "##esto": 8012,
      "pere": 8013,
      "seção": 8014,
      "colabora": 8015,
      "controlar": 8016,
      "##vér": 8017,
      "negro": 8018,
      "fenômeno": 8019,
      "Den": 8020,
      "lutas": 8021,
      "viaja": 8022,
      "especificamente": 8023,
      "gl": 8024,
      "consciência": 8025,
      "relacionadas": 8026,
      "gran": 8027,
      "concluiu": 8028,
      "Billboard": 8029,
      "declaração": 8030,
      "anún": 8031,
      "cantar": 8032,
      "hipótese": 8033,
      "Aeroporto": 8034,
      "recuperação": 8035,
      "##cab": 8036,
      "mang": 8037,
      "Letras": 8038,
      "impedir": 8039,
      "departamento": 8040,
      "##gava": 8041,
      "##vando": 8042,
      "familiar": 8043,
      "question": 8044,
      "influencia": 8045,
      "##ory": 8046,
      "34": 8047,
      "##dação": 8048,
      "Técn": 8049,
      "mass": 8050,
      "consta": 8051,
      "##ntados": 8052,
      "Sobre": 8053,
      "andar": 8054,
      "dedicado": 8055,
      "Cat": 8056,
      "Hitler": 8057,
      "inspiração": 8058,
      "corresponde": 8059,
      "##dis": 8060,
      "Gold": 8061,
      "elite": 8062,
      "ascensão": 8063,
      "Paz": 8064,
      "American": 8065,
      "##dig": 8066,
      "Band": 8067,
      "Sebastião": 8068,
      "anar": 8069,
      "detec": 8070,
      "Regional": 8071,
      "testemun": 8072,
      "##cad": 8073,
      "Decreto": 8074,
      "circulação": 8075,
      "1950": 8076,
      "Síria": 8077,
      "reformas": 8078,
      "telenovela": 8079,
      "##rag": 8080,
      "##sey": 8081,
      "interromp": 8082,
      "colonial": 8083,
      "japoneses": 8084,
      "descoberto": 8085,
      "negociações": 8086,
      "cob": 8087,
      "Sala": 8088,
      "nerv": 8089,
      "##binete": 8090,
      "contam": 8091,
      "leitura": 8092,
      "sintomas": 8093,
      "mostrando": 8094,
      "Jord": 8095,
      "gelo": 8096,
      "caixa": 8097,
      "guard": 8098,
      "concre": 8099,
      "renome": 8100,
      "aumenta": 8101,
      "##ube": 8102,
      "38": 8103,
      "rig": 8104,
      "chão": 8105,
      "Jerus": 8106,
      "Carta": 8107,
      "lesão": 8108,
      "ocorreram": 8109,
      "##ken": 8110,
      "morrer": 8111,
      "distritos": 8112,
      "determinada": 8113,
      "ensina": 8114,
      "próximas": 8115,
      "clín": 8116,
      "Médio": 8117,
      "festas": 8118,
      "College": 8119,
      "##upar": 8120,
      "situa": 8121,
      "debate": 8122,
      "temperaturas": 8123,
      "##set": 8124,
      "Agu": 8125,
      "Gio": 8126,
      "Tan": 8127,
      "certos": 8128,
      "deuses": 8129,
      "parede": 8130,
      "largura": 8131,
      "policial": 8132,
      "conservação": 8133,
      "##)\"": 8134,
      "Torre": 8135,
      "ácido": 8136,
      "intensa": 8137,
      "combinação": 8138,
      "FC": 8139,
      "##jada": 8140,
      "sáb": 8141,
      "##kins": 8142,
      "Paraíba": 8143,
      "Tru": 8144,
      "reta": 8145,
      "Fazenda": 8146,
      "governos": 8147,
      "tradições": 8148,
      "##zi": 8149,
      "##agos": 8150,
      "##vite": 8151,
      "##gover": 8152,
      "Soci": 8153,
      "nuclear": 8154,
      "culturas": 8155,
      "##qui": 8156,
      "37": 8157,
      "Taça": 8158,
      "Sérgio": 8159,
      "aproveita": 8160,
      "compostos": 8161,
      "constituído": 8162,
      "precip": 8163,
      "participaram": 8164,
      "##irem": 8165,
      "##essas": 8166,
      "##ressa": 8167,
      "Massa": 8168,
      "Produ": 8169,
      "cuidados": 8170,
      "One": 8171,
      "##gueira": 8172,
      "estat": 8173,
      "satisf": 8174,
      "aí": 8175,
      "Walter": 8176,
      "Família": 8177,
      "diploma": 8178,
      "feminina": 8179,
      "##plic": 8180,
      "Aço": 8181,
      "National": 8182,
      "procu": 8183,
      "quinze": 8184,
      "inúmeros": 8185,
      "##cações": 8186,
      "Negro": 8187,
      "UFC": 8188,
      "Todas": 8189,
      "recurso": 8190,
      "International": 8191,
      "##Te": 8192,
      "##cap": 8193,
      "##ônios": 8194,
      "marí": 8195,
      "tran": 8196,
      "restos": 8197,
      "vieram": 8198,
      "universidades": 8199,
      "##râneo": 8200,
      "Espa": 8201,
      "Vasco": 8202,
      "##restre": 8203,
      "quis": 8204,
      "##estina": 8205,
      "certas": 8206,
      "Mun": 8207,
      "opção": 8208,
      "poderá": 8209,
      "assinado": 8210,
      "Organização": 8211,
      "Vargas": 8212,
      "surgiram": 8213,
      "##PE": 8214,
      "ligada": 8215,
      "livres": 8216,
      "tribos": 8217,
      "definitivamente": 8218,
      "##dire": 8219,
      "##ration": 8220,
      "morta": 8221,
      "aprovei": 8222,
      "conhecer": 8223,
      "inteligência": 8224,
      "Gusta": 8225,
      "abaste": 8226,
      "servido": 8227,
      "sexto": 8228,
      "colegas": 8229,
      "pratica": 8230,
      "aumentou": 8231,
      "decisões": 8232,
      "divisões": 8233,
      "provável": 8234,
      "##box": 8235,
      "##tragem": 8236,
      "##els": 8237,
      "##atual": 8238,
      "Stone": 8239,
      "origens": 8240,
      "Jerusalém": 8241,
      "céu": 8242,
      "hab": 8243,
      "vídeos": 8244,
      "##restling": 8245,
      "##Be": 8246,
      "##ércitos": 8247,
      "doutrina": 8248,
      "administrativa": 8249,
      "CP": 8250,
      "ib": 8251,
      "##aren": 8252,
      "##rica": 8253,
      "##vora": 8254,
      "##étrica": 8255,
      "católicos": 8256,
      "##nch": 8257,
      "High": 8258,
      "##táculos": 8259,
      "estaduais": 8260,
      "##TC": 8261,
      "itens": 8262,
      "décimo": 8263,
      "aparecer": 8264,
      "classificou": 8265,
      "SBT": 8266,
      "tarefa": 8267,
      "projecto": 8268,
      "##dita": 8269,
      "##present": 8270,
      "cavalo": 8271,
      "oferta": 8272,
      "podiam": 8273,
      "descrição": 8274,
      "perspectiva": 8275,
      "Dio": 8276,
      "gram": 8277,
      "Cole": 8278,
      "periód": 8279,
      "interno": 8280,
      "substituir": 8281,
      "##alves": 8282,
      "Fluminense": 8283,
      "composições": 8284,
      "Defesa": 8285,
      "amizade": 8286,
      "resolução": 8287,
      "Peru": 8288,
      "Time": 8289,
      "##ndeses": 8290,
      "algor": 8291,
      "1993": 8292,
      "Jas": 8293,
      "Wilson": 8294,
      "##Ex": 8295,
      "admira": 8296,
      "Dinamarca": 8297,
      "BR": 8298,
      "Silv": 8299,
      "iniciais": 8300,
      "##uf": 8301,
      "Colo": 8302,
      "aére": 8303,
      "##espera": 8304,
      "Street": 8305,
      "Português": 8306,
      "##17": 8307,
      "##cipa": 8308,
      "causas": 8309,
      "singles": 8310,
      "deveriam": 8311,
      "australia": 8312,
      "designado": 8313,
      "##AM": 8314,
      "Kim": 8315,
      "##ótica": 8316,
      "Grand": 8317,
      "extinção": 8318,
      "integração": 8319,
      "##arn": 8320,
      "herdeiro": 8321,
      "discussão": 8322,
      "##íqu": 8323,
      "##élia": 8324,
      "diá": 8325,
      "Norue": 8326,
      "diferencia": 8327,
      "##lov": 8328,
      "vítima": 8329,
      "Mestre": 8330,
      "Santana": 8331,
      "negócio": 8332,
      "reduzir": 8333,
      "destruir": 8334,
      "fundadores": 8335,
      "eletro": 8336,
      "regionais": 8337,
      "gregos": 8338,
      "familiares": 8339,
      "organizado": 8340,
      "Soares": 8341,
      "##leto": 8342,
      "ilum": 8343,
      "Buenos": 8344,
      "##itamente": 8345,
      "funcional": 8346,
      "acreditava": 8347,
      "camada": 8348,
      "noroeste": 8349,
      "estabelecido": 8350,
      "##cote": 8351,
      "Tay": 8352,
      "##ianas": 8353,
      "##pecta": 8354,
      "Wood": 8355,
      "rodovi": 8356,
      "##ífer": 8357,
      "WWE": 8358,
      "##tição": 8359,
      "##âneos": 8360,
      "##êncio": 8361,
      "ouvi": 8362,
      "braço": 8363,
      "tratar": 8364,
      "inauguração": 8365,
      "##une": 8366,
      "pron": 8367,
      "##ungria": 8368,
      "cú": 8369,
      "Hy": 8370,
      "Kir": 8371,
      "Mata": 8372,
      "Harry": 8373,
      "polêm": 8374,
      "evidências": 8375,
      "surgimento": 8376,
      "pó": 8377,
      "Júnior": 8378,
      "Andrade": 8379,
      "##estamento": 8380,
      "##',": 8381,
      "##ster": 8382,
      "partiu": 8383,
      "convidados": 8384,
      "##itiu": 8385,
      "circuito": 8386,
      "Obs": 8387,
      "##ltima": 8388,
      "##roup": 8389,
      "176": 8390,
      "confronto": 8391,
      "nomeadamente": 8392,
      "##rei": 8393,
      "hem": 8394,
      "##ítico": 8395,
      "apoiar": 8396,
      "##ali": 8397,
      "Gonçalves": 8398,
      "Bom": 8399,
      "##pondo": 8400,
      "##olanda": 8401,
      "aquis": 8402,
      "estim": 8403,
      "carreg": 8404,
      "fórmula": 8405,
      "Williams": 8406,
      "impro": 8407,
      "causar": 8408,
      "##lando": 8409,
      "alma": 8410,
      "avanço": 8411,
      "caminh": 8412,
      "impera": 8413,
      "Gl": 8414,
      "funciona": 8415,
      "resolver": 8416,
      "integrante": 8417,
      "##500": 8418,
      "Mano": 8419,
      "queb": 8420,
      "dedicada": 8421,
      "frase": 8422,
      "Bíblia": 8423,
      "inspirado": 8424,
      "toneladas": 8425,
      "inaugurada": 8426,
      "##NT": 8427,
      "##etano": 8428,
      "##ndere": 8429,
      "trazer": 8430,
      "convite": 8431,
      "étn": 8432,
      "Texas": 8433,
      "sacri": 8434,
      "##lamação": 8435,
      "filmagens": 8436,
      "combustível": 8437,
      "##Da": 8438,
      "Day": 8439,
      "##ntada": 8440,
      "##vindo": 8441,
      "eixo": 8442,
      "vias": 8443,
      "proprietário": 8444,
      "##//": 8445,
      "fatos": 8446,
      "filhas": 8447,
      "nomeou": 8448,
      "órbita": 8449,
      "Vermelho": 8450,
      "Fernandes": 8451,
      "Movimento": 8452,
      "cavalaria": 8453,
      "##cte": 8454,
      "Zona": 8455,
      "##ânicas": 8456,
      "Tendo": 8457,
      "marcas": 8458,
      "visitantes": 8459,
      "Vil": 8460,
      "Turquia": 8461,
      "exatamente": 8462,
      "Curitiba": 8463,
      "correspond": 8464,
      "computadores": 8465,
      "kg": 8466,
      "##úrb": 8467,
      "##tono": 8468,
      "web": 8469,
      "##hians": 8470,
      "##parta": 8471,
      "Guer": 8472,
      "manus": 8473,
      "Nelson": 8474,
      "liberal": 8475,
      "##mit": 8476,
      "##colas": 8477,
      "mission": 8478,
      "Maranhão": 8479,
      "prossegu": 8480,
      "##tures": 8481,
      "teles": 8482,
      "pedras": 8483,
      "Finalmente": 8484,
      "significativa": 8485,
      "##comun": 8486,
      "Arthur": 8487,
      "juntar": 8488,
      "##king": 8489,
      "band": 8490,
      "eman": 8491,
      "Pública": 8492,
      "escapar": 8493,
      "concertos": 8494,
      "artilharia": 8495,
      "assistência": 8496,
      "##uc": 8497,
      "##odor": 8498,
      "tip": 8499,
      "continuaram": 8500,
      "parcialmente": 8501,
      "Cláu": 8502,
      "Administração": 8503,
      "Comitê": 8504,
      "colônia": 8505,
      "propósito": 8506,
      "porte": 8507,
      "arquiteto": 8508,
      "específico": 8509,
      "##24": 8510,
      "##eixes": 8511,
      "simpl": 8512,
      "câncer": 8513,
      "guerras": 8514,
      "vendidos": 8515,
      "##venil": 8516,
      "dono": 8517,
      "transferido": 8518,
      "##PR": 8519,
      "##ocê": 8520,
      "##ult": 8521,
      "Dig": 8522,
      "costas": 8523,
      "sucessão": 8524,
      "var": 8525,
      "assinatura": 8526,
      "hotel": 8527,
      "Studios": 8528,
      "Original": 8529,
      "end": 8530,
      "##iderou": 8531,
      "India": 8532,
      "Iraque": 8533,
      "torcida": 8534,
      "fornecer": 8535,
      "partículas": 8536,
      "Álva": 8537,
      "Paraguai": 8538,
      "##nie": 8539,
      "feliz": 8540,
      "Ens": 8541,
      "equação": 8542,
      "##Rio": 8543,
      "ia": 8544,
      "cedo": 8545,
      "##óstico": 8546,
      "##inthians": 8547,
      "mostram": 8548,
      "técnicos": 8549,
      "adversário": 8550,
      "##oli": 8551,
      "Fez": 8552,
      "raízes": 8553,
      "##roco": 8554,
      "House": 8555,
      "mobil": 8556,
      "##ificando": 8557,
      "faculdade": 8558,
      "Engenharia": 8559,
      "desenvolvida": 8560,
      "##ii": 8561,
      "pior": 8562,
      "ingleses": 8563,
      "considerou": 8564,
      "Leopol": 8565,
      "vegetação": 8566,
      "escritores": 8567,
      "##fogo": 8568,
      "Segurança": 8569,
      "reconhecida": 8570,
      "##beu": 8571,
      "##quil": 8572,
      "fasc": 8573,
      "trem": 8574,
      "alfabe": 8575,
      "variáveis": 8576,
      "comercia": 8577,
      "franquia": 8578,
      "resultando": 8579,
      "volumes": 8580,
      "##federação": 8581,
      "acompanhado": 8582,
      "causando": 8583,
      "ambiental": 8584,
      "fib": 8585,
      "‘": 8586,
      "##‘": 8587,
      "##ami": 8588,
      "tou": 8589,
      "##landês": 8590,
      "polon": 8591,
      "algorit": 8592,
      "##down": 8593,
      "gén": 8594,
      "Média": 8595,
      "olímp": 8596,
      "Gro": 8597,
      "rica": 8598,
      "Apenas": 8599,
      "emprés": 8600,
      "semelh": 8601,
      "simbol": 8602,
      "demanda": 8603,
      "comentou": 8604,
      "manip": 8605,
      "##ificadas": 8606,
      "Carolina": 8607,
      "permitem": 8608,
      "estudante": 8609,
      "aérea": 8610,
      "esperança": 8611,
      "envolvidos": 8612,
      "##bis": 8613,
      "##idel": 8614,
      "##ísica": 8615,
      "Pesqu": 8616,
      "##alizada": 8617,
      "brancos": 8618,
      "sudeste": 8619,
      "correspondente": 8620,
      "cé": 8621,
      "##orial": 8622,
      "##ónica": 8623,
      "depressão": 8624,
      "sai": 8625,
      "Viena": 8626,
      "artic": 8627,
      "eleitos": 8628,
      "eleitoral": 8629,
      "##face": 8630,
      "##udio": 8631,
      "Stor": 8632,
      "esgo": 8633,
      "##yr": 8634,
      "Eric": 8635,
      "televis": 8636,
      "india": 8637,
      "terminando": 8638,
      "VII": 8639,
      "Steph": 8640,
      "Noruega": 8641,
      "ligados": 8642,
      "##rise": 8643,
      "##ormes": 8644,
      "Steve": 8645,
      "Baixos": 8646,
      "##cesa": 8647,
      "Sun": 8648,
      "Brit": 8649,
      "amar": 8650,
      "Rocha": 8651,
      "Vieira": 8652,
      "notícia": 8653,
      "Biblioteca": 8654,
      "Mike": 8655,
      "cônsul": 8656,
      "relatos": 8657,
      "propostas": 8658,
      "48": 8659,
      "Gua": 8660,
      "már": 8661,
      "##doso": 8662,
      "##éricas": 8663,
      "Clark": 8664,
      "esquad": 8665,
      "Trabalh": 8666,
      "Conceição": 8667,
      "carbono": 8668,
      "program": 8669,
      "ciências": 8670,
      "escolher": 8671,
      "##200": 8672,
      "##merica": 8673,
      "sugere": 8674,
      "lançaram": 8675,
      "humanidade": 8676,
      "documentário": 8677,
      "##!\"": 8678,
      "ficam": 8679,
      "católica": 8680,
      "##med": 8681,
      "Opera": 8682,
      "##-5": 8683,
      "adia": 8684,
      "pira": 8685,
      "##eixe": 8686,
      "ocupou": 8687,
      "Associa": 8688,
      "acusado": 8689,
      "PT": 8690,
      "Verão": 8691,
      "Marvel": 8692,
      "árabes": 8693,
      "assistente": 8694,
      "publicações": 8695,
      "##nau": 8696,
      "intu": 8697,
      "##idação": 8698,
      "pobres": 8699,
      "##çando": 8700,
      "Atra": 8701,
      "Belém": 8702,
      "Ferra": 8703,
      "Teresa": 8704,
      "compre": 8705,
      "##48": 8706,
      "afil": 8707,
      "Napoleão": 8708,
      "Portanto": 8709,
      "aprendiz": 8710,
      "variação": 8711,
      "Ken": 8712,
      "Rafa": 8713,
      "tril": 8714,
      "Diego": 8715,
      "selva": 8716,
      "requis": 8717,
      "##OR": 8718,
      "##ornada": 8719,
      "irreg": 8720,
      "lenda": 8721,
      "confiança": 8722,
      "##oni": 8723,
      "##lhes": 8724,
      "##trado": 8725,
      "##zendo": 8726,
      "triun": 8727,
      "##iber": 8728,
      "sessão": 8729,
      "contando": 8730,
      "preços": 8731,
      "marcando": 8732,
      "comumente": 8733,
      "representam": 8734,
      "##pot": 8735,
      "Bir": 8736,
      "Ima": 8737,
      "poderoso": 8738,
      "estudiosos": 8739,
      "operacional": 8740,
      "Auto": 8741,
      "seca": 8742,
      "tera": 8743,
      "integrar": 8744,
      "Parlamento": 8745,
      "dispositivos": 8746,
      "##esco": 8747,
      "ativo": 8748,
      "começam": 8749,
      "exercício": 8750,
      "participações": 8751,
      "Urb": 8752,
      "metá": 8753,
      "##ulações": 8754,
      "europeia": 8755,
      "Br": 8756,
      "##hadas": 8757,
      "##çados": 8758,
      "Bernardo": 8759,
      "Flamengo": 8760,
      "conjuntos": 8761,
      "##Ta": 8762,
      "Royal": 8763,
      "cujas": 8764,
      "##enamento": 8765,
      "gos": 8766,
      "Livro": 8767,
      "europ": 8768,
      "##Station": 8769,
      "rádios": 8770,
      "possuir": 8771,
      "##ecem": 8772,
      "vigor": 8773,
      "forçado": 8774,
      "##hr": 8775,
      "##out": 8776,
      "Brig": 8777,
      "Padre": 8778,
      "Angola": 8779,
      "chinês": 8780,
      "deseja": 8781,
      "gerais": 8782,
      "considerar": 8783,
      "incluir": 8784,
      "policiais": 8785,
      "ferramentas": 8786,
      "Fic": 8787,
      "mat": 8788,
      "##torado": 8789,
      "manifestações": 8790,
      "Len": 8791,
      "brig": 8792,
      "depende": 8793,
      "terminar": 8794,
      "fronteiras": 8795,
      "##idal": 8796,
      "rico": 8797,
      "reuniu": 8798,
      "##presenta": 8799,
      "aceitar": 8800,
      "famosos": 8801,
      "incêndio": 8802,
      "associada": 8803,
      "muçulmanos": 8804,
      "##feito": 8805,
      "abol": 8806,
      "nele": 8807,
      "##ifa": 8808,
      "##ety": 8809,
      "cerco": 8810,
      "chance": 8811,
      "incluía": 8812,
      "##35": 8813,
      "##çam": 8814,
      "Aus": 8815,
      "Kat": 8816,
      "lit": 8817,
      "##75": 8818,
      "##ret": 8819,
      "Mora": 8820,
      "XIII": 8821,
      "Taylor": 8822,
      "##iá": 8823,
      "1988": 8824,
      "reci": 8825,
      "Venez": 8826,
      "catal": 8827,
      "neuro": 8828,
      "##grafias": 8829,
      "120": 8830,
      "Base": 8831,
      "Pala": 8832,
      "quente": 8833,
      "Francis": 8834,
      "classificado": 8835,
      "##-9": 8836,
      "Leste": 8837,
      "Corinthians": 8838,
      "fracas": 8839,
      "atuando": 8840,
      "atacante": 8841,
      "vencendo": 8842,
      "pontuação": 8843,
      "##queles": 8844,
      "considerável": 8845,
      "sonho": 8846,
      "Amazonas": 8847,
      "substituição": 8848,
      "##sta": 8849,
      "Jeff": 8850,
      "teat": 8851,
      "actual": 8852,
      "entregue": 8853,
      "ocasiões": 8854,
      "##reiros": 8855,
      "acervo": 8856,
      "gravada": 8857,
      "anualmente": 8858,
      "##ndu": 8859,
      "##itan": 8860,
      "torce": 8861,
      "dançar": 8862,
      "defici": 8863,
      "sudoeste": 8864,
      "##rativa": 8865,
      "Ambos": 8866,
      "impor": 8867,
      "vender": 8868,
      "riqueza": 8869,
      "##postamente": 8870,
      "óleo": 8871,
      "Apare": 8872,
      "jardas": 8873,
      "##luindo": 8874,
      "adicionais": 8875,
      "organizada": 8876,
      "profundidade": 8877,
      "Lew": 8878,
      "##hamento": 8879,
      "entraram": 8880,
      "##mático": 8881,
      "graus": 8882,
      "constitui": 8883,
      "##zy": 8884,
      "##úlio": 8885,
      "vapor": 8886,
      "extremo": 8887,
      "construídos": 8888,
      "##sar": 8889,
      "Ur": 8890,
      "rob": 8891,
      "dubl": 8892,
      "implica": 8893,
      "descrita": 8894,
      "controvér": 8895,
      "##amentos": 8896,
      "##chal": 8897,
      "rad": 8898,
      "demol": 8899,
      "clássicos": 8900,
      "##Or": 8901,
      "Catedral": 8902,
      "impostos": 8903,
      "referido": 8904,
      "Rom": 8905,
      "United": 8906,
      "Governador": 8907,
      "contribuiu": 8908,
      "ina": 8909,
      "Rick": 8910,
      "preciso": 8911,
      "subsequ": 8912,
      "orçamento": 8913,
      "similares": 8914,
      "transformou": 8915,
      "##hel": 8916,
      "Pá": 8917,
      "peixes": 8918,
      "capítulos": 8919,
      "intensidade": 8920,
      "existia": 8921,
      "Professor": 8922,
      "exércitos": 8923,
      "##Par": 8924,
      "abrir": 8925,
      "censo": 8926,
      "##pso": 8927,
      "Vin": 8928,
      "Mario": 8929,
      "Zelândia": 8930,
      "fuga": 8931,
      "amiga": 8932,
      "major": 8933,
      "criadas": 8934,
      "##MG": 8935,
      "##pace": 8936,
      "160": 8937,
      "Paula": 8938,
      "coinc": 8939,
      "vinha": 8940,
      "Particip": 8941,
      "substituindo": 8942,
      "imag": 8943,
      "agress": 8944,
      "lateral": 8945,
      "limitada": 8946,
      "investimento": 8947,
      "##tec": 8948,
      "##deram": 8949,
      "ondas": 8950,
      "salva": 8951,
      "definir": 8952,
      "Moder": 8953,
      "canta": 8954,
      "completar": 8955,
      "pico": 8956,
      "nobres": 8957,
      "dedicou": 8958,
      "##tém": 8959,
      "##brou": 8960,
      "##ômbia": 8961,
      "anime": 8962,
      "confund": 8963,
      "montanha": 8964,
      "Secretário": 8965,
      "Ú": 8966,
      "continuidade": 8967,
      "populacional": 8968,
      "##medi": 8969,
      "##cionado": 8970,
      "defendeu": 8971,
      "autonomia": 8972,
      "##idez": 8973,
      "##estes": 8974,
      "1986": 8975,
      "culmin": 8976,
      "comprar": 8977,
      "colocados": 8978,
      "##cool": 8979,
      "##viam": 8980,
      "cun": 8981,
      "##intendo": 8982,
      "##izações": 8983,
      "conter": 8984,
      "dispositivo": 8985,
      "##idge": 8986,
      "Les": 8987,
      "atração": 8988,
      "##PC": 8989,
      "##ev": 8990,
      "##Star": 8991,
      "incom": 8992,
      "ponta": 8993,
      "Estrada": 8994,
      "dezesse": 8995,
      "dependendo": 8996,
      "Francesa": 8997,
      "acabaram": 8998,
      "radiação": 8999,
      "vizinhos": 9000,
      "##tiza": 9001,
      "fós": 9002,
      "mode": 9003,
      "necessários": 9004,
      "Rem": 9005,
      "Cunha": 9006,
      "alcance": 9007,
      "##EL": 9008,
      "Est": 9009,
      "prior": 9010,
      "Columb": 9011,
      "agência": 9012,
      "dirigida": 9013,
      "científico": 9014,
      "##;": 9015,
      "##fel": 9016,
      "##ips": 9017,
      "May": 9018,
      "patr": 9019,
      "russa": 9020,
      "futura": 9021,
      "seriado": 9022,
      "dimensão": 9023,
      "##tária": 9024,
      "##iedade": 9025,
      "nomeação": 9026,
      "decidiram": 9027,
      "elé": 9028,
      "##65": 9029,
      "##uo": 9030,
      "##Mel": 9031,
      "##ffs": 9032,
      "1930": 9033,
      "Tony": 9034,
      "taxas": 9035,
      "Ciência": 9036,
      "setores": 9037,
      "condenado": 9038,
      "PlayStation": 9039,
      "##ll": 9040,
      "tecnologias": 9041,
      "##Ga": 9042,
      "##urt": 9043,
      "áto": 9044,
      "##parou": 9045,
      "conceb": 9046,
      "normas": 9047,
      "carioca": 9048,
      "Cax": 9049,
      "entender": 9050,
      "Gri": 9051,
      "Sir": 9052,
      "##itter": 9053,
      "##tizada": 9054,
      "colocada": 9055,
      "símbolos": 9056,
      "municipais": 9057,
      "Poder": 9058,
      "vento": 9059,
      "liderou": 9060,
      "Republic": 9061,
      "##taneamente": 9062,
      "variações": 9063,
      "Fis": 9064,
      "Sag": 9065,
      "bur": 9066,
      "##ranking": 9067,
      "##ímetros": 9068,
      "subord": 9069,
      "iniciar": 9070,
      "Zo": 9071,
      "Live": 9072,
      "Canal": 9073,
      "histor": 9074,
      "baterista": 9075,
      "escritório": 9076,
      "Las": 9077,
      "pred": 9078,
      "parar": 9079,
      "pesquisadores": 9080,
      "##book": 9081,
      "jud": 9082,
      "pse": 9083,
      "##adoras": 9084,
      "Nicola": 9085,
      "ficava": 9086,
      "Editora": 9087,
      "rebeldes": 9088,
      "espal": 9089,
      "Doutor": 9090,
      "Serviço": 9091,
      "expecta": 9092,
      "abandonou": 9093,
      "particulares": 9094,
      "##bara": 9095,
      "##formas": 9096,
      "Tempo": 9097,
      "armazen": 9098,
      "recomend": 9099,
      "##22": 9100,
      "##junto": 9101,
      "##ragem": 9102,
      "1989": 9103,
      "cadeira": 9104,
      "##ordes": 9105,
      "cron": 9106,
      "Alexa": 9107,
      "Carlo": 9108,
      "placar": 9109,
      "atitude": 9110,
      "mecânica": 9111,
      "oferecer": 9112,
      "constituída": 9113,
      "##key": 9114,
      "##ray": 9115,
      "##aldade": 9116,
      "Moscou": 9117,
      "quadros": 9118,
      "notáveis": 9119,
      "entidades": 9120,
      "tripulação": 9121,
      "prisioneiros": 9122,
      "##vés": 9123,
      "##ceis": 9124,
      "Corn": 9125,
      "recomp": 9126,
      "batalhas": 9127,
      "iniciado": 9128,
      "University": 9129,
      "##êmeas": 9130,
      "##enciais": 9131,
      "indústrias": 9132,
      "espectadores": 9133,
      "representado": 9134,
      "##arenta": 9135,
      "comprom": 9136,
      "sig": 9137,
      "viajou": 9138,
      "designação": 9139,
      "Ata": 9140,
      "paga": 9141,
      "##lesiás": 9142,
      "cento": 9143,
      "faziam": 9144,
      "cristianismo": 9145,
      "##ând": 9146,
      "##adia": 9147,
      "##ting": 9148,
      "irmãs": 9149,
      "atleta": 9150,
      "Esporte": 9151,
      "baseados": 9152,
      "##errou": 9153,
[...]
